// Neural Network Weights
// Format: S.4.11 fixed-point
// Layers: [784, 16, 16, 10]

// Layer 0: 784 inputs x 16 outputs
// Address range: 0 - 12543
FFD7
00A2
0055
0023
FF89
FF86
FF65
0083
0023
004D
FF57
00AA
0077
FF9B
FF90
FF93
FFBE
000A
FFEA
FFB8
0029
FF86
FFB9
FFD2
FFF4
0067
FF99
0008
0022
FF62
002B
FF8F
FF67
00A3
00A8
006E
FFBE
FF74
0042
FFEC
FF7C
0002
FF5E
0092
FFAE
003C
FFBF
0009
0014
FF91
00A9
0061
009E
0090
0023
009A
FF70
FF95
FF61
FFC5
FFDC
FFB3
0076
FFCF
FFB4
0011
FF80
006F
FF6A
00AF
0063
FF96
FF51
0072
004B
0053
0064
FF6A
FFCE
FF7B
0084
0030
FFC4
FF6A
FFC1
FFC3
0053
0032
008C
FFFB
FF7B
004E
005F
0019
0062
0001
0009
FFE9
FF5A
FF77
FF5D
0032
FFC0
0004
0093
FFAA
FFE1
005D
FFA2
FF6C
FFB7
FF89
0098
006F
0032
0084
006D
FF94
008D
0010
006F
0090
FFC1
FF7A
FFA0
FFE9
0073
0083
FF52
0004
FFE4
FF9E
FF7F
FFC9
009F
FFC3
0009
0047
FFD0
00AB
00A5
FFAB
0003
FFBB
FFB7
FF5B
0028
0003
FF24
FF77
0054
FF68
FFC8
003F
00F2
FFE9
FFFE
001E
FF64
0011
FFD4
0031
0033
000D
FF71
0077
FFC2
FF93
FF5E
0021
003F
FF56
0008
FFA2
0036
FF8F
0007
FF9C
005E
FF42
000F
FFBD
00DC
00CB
FF6D
FFFA
0031
FFD6
000C
FFA7
FF73
008D
0090
0031
FFC9
FFCD
004F
008E
008C
0065
0036
FF6F
FF89
008F
FFE9
FF17
FF37
FFFE
FF97
FFCF
0057
0089
FFF7
FF5E
000B
FF62
FFC4
005A
0036
0080
003A
001E
FF74
FFD2
FFAC
FFA8
00AC
FFDC
008C
0030
0069
0004
FFDD
FFC0
FF59
0012
FFF7
FF9C
0078
FFD4
005E
0060
0054
FF93
FF55
009A
FFE9
00A7
00A6
0080
FFBC
FFD9
007F
FFC2
FF8D
0013
009F
0048
001A
FF75
FFBF
0044
FF17
FF9C
00F5
00C8
00B4
00B7
FFD0
FFB9
006D
006F
0083
0096
0005
0003
006B
0038
004A
0069
008D
FFC8
FFD4
FF73
001E
FF5C
FFF7
0010
FF4B
FFB7
FEF1
FEF3
00E2
0040
FFEC
0078
005D
FF9A
002E
FF6C
FF66
000E
0010
0033
0053
00AB
0007
FFC3
0068
FFAF
FFEC
FF6C
FF59
00A6
0078
0049
FF74
FF23
FF1E
FF3F
0080
00BD
00A7
0020
00A1
0054
0014
0027
FFE4
FFA8
FFCE
005D
FF57
FF7A
FF63
FF5F
0081
004B
FFF7
FF72
FFFF
FFF9
FF90
FFEA
FFDC
0031
0034
FF64
0050
00A7
007C
00FA
FFFB
FF4A
FF2C
FFF6
FF58
0020
009E
001E
FFD9
0036
FFF1
0011
009F
FFD9
00A8
0093
FF97
FF67
FF73
FF57
FF77
0047
FF70
FFC4
00F4
FFD2
00EC
002E
FF3A
000B
FFF3
004A
0052
006D
FFB0
FF8E
005A
006E
00B0
FFE5
FFD6
0063
FFC7
009A
0083
FFE8
005A
005F
FF7A
0097
0007
007B
003C
0107
0055
FFCD
0053
FF34
FF85
0061
00A0
001E
0033
FFEF
FFBA
FFC6
0040
005C
006C
0069
FF70
FFFF
FF65
0013
FFEC
008D
FFD2
FF7E
FF87
0064
00A2
FFED
FFE8
00C0
FF2C
0035
000F
FF2B
FF6E
00B0
FFD9
FFD4
0073
00A0
00AD
005D
FFD4
FF6D
0065
0018
FFEA
0093
FF77
0000
FFEF
0090
FFFF
0016
FFE9
00A4
00C7
008D
FFD9
FF09
FEE9
FFBD
FFA2
00A6
FF56
00A7
FF60
008D
000B
00B0
FF6D
0015
00A9
000B
0031
0046
FFF2
002E
00B7
012C
FFFE
0051
0110
00FB
005E
009B
FEE9
FEC9
FF28
FF01
0021
FF6D
00AA
00AE
0048
000E
FFC0
0071
0043
FF8B
0093
0076
00A2
0050
0028
FFE3
0134
0120
FFFD
FFF7
0042
00E0
011C
FFF3
FF59
FF0D
FFDC
FFAF
007A
FFF8
FFE2
FFB0
FF66
0082
006F
00B4
00B3
0016
0061
009F
007E
FFA7
FFF0
FF7F
00DE
0063
FFE2
007B
00D7
0079
0025
00EA
FFCA
0022
FFCB
003F
0015
0018
0089
FFDE
FF7E
FF5B
005E
002B
0049
FF9F
FF81
FF58
FFCE
0025
FFDC
FFEC
00CF
000C
0044
00A3
0089
00D8
012B
014D
FF43
0059
FFBE
FF6D
FFF5
00AC
FFFF
FFC5
0033
FFA6
FF6D
FF7E
FF80
FF85
FF81
0031
FF90
FFCC
008E
FFF8
007B
FFCA
FFD4
FF9D
0038
005E
003B
001B
FF3B
FFB5
FF5D
FF94
0004
0046
FF62
006A
0030
FF6C
0087
0096
FF66
FFB2
006D
0058
FF90
FF9B
FFD5
FFFC
006A
0011
0030
0097
000B
0054
00F8
0138
FFCA
FFD0
FF37
FFB0
000D
FFA7
FFAF
FFD8
FF59
FFC3
FF9D
FFC5
FF7C
008D
0022
0042
0069
0001
FF71
0010
0021
0057
FFEC
FF80
FFB6
FFD1
0035
001C
FFD0
00AF
0026
FFA6
FF75
FF87
FFA6
FF87
FF93
FFB6
FF92
008C
FF6F
000A
FFE2
00AE
FF79
FFDE
00A8
0084
0073
FFAE
FF8C
003E
009A
0015
001A
FFB1
0063
FF94
FFC2
FFE8
0002
FFA7
FF79
002A
FFB7
001D
FF87
FFFB
000F
FF64
FFC8
FF80
FF6A
00AF
FFC5
0071
FFAA
0042
0060
0023
FFF8
FFE1
FFCD
009A
0076
00A5
FF7E
0053
00A0
FF90
FF6A
0056
001E
007B
FF83
006B
FF9A
FF8D
FF8B
0071
003F
000C
FFD0
0089
FFDD
0072
FFEC
FFD5
FFF3
FFBD
005D
0005
FFA3
008F
FFDA
0010
0090
002E
FF7A
009D
002F
FFC5
FF81
006C
002D
000E
008F
0069
FF88
FFC2
FFAA
0058
FF5C
001A
0061
0089
FFCB
0073
FF79
007E
FF7E
FFDC
006A
FF88
FFA2
0053
0050
0037
0049
0012
FFAC
FFCC
FF8B
008A
0016
FFDA
FFF4
009C
FF82
0018
0000
0028
FF55
0081
0095
0015
0043
0095
0049
FF82
0017
0024
FFE5
004F
0099
0094
FFE8
FF76
00A6
0076
FF76
0090
0083
0007
001C
FFD7
FF63
FFC4
0068
FF4D
FFBE
FFDC
0008
0094
FFC5
FFC8
0056
FFED
FF9B
FFF1
FF80
FF84
FFF9
FFDD
0091
FFCF
001C
002A
FF54
0038
FF8B
00A2
FF85
FFDE
FF6C
00AC
0001
0023
FF61
0056
FF96
008B
FF94
FF91
FF55
FFF3
0014
FF64
0061
FFEF
0003
FFE6
FFDE
0012
FF82
FF8E
007B
009A
FFCF
FFAD
0030
FFDF
FF55
FF82
0047
0034
FF57
FF9E
FF9D
003C
FF51
FF72
006B
FF8A
0037
FFA1
FF70
FFA3
004B
007D
0074
FFD6
0039
FF95
FFAE
008A
FF49
FF6D
FF92
FF59
FF8C
001A
FFDD
008B
006F
FFC9
FFA4
FFD0
0021
FFAE
002B
FFDD
0010
FFE5
FFB8
009C
005E
FF7E
007D
FFF9
008A
0069
FFE1
FF52
FFAC
000D
002D
FFA6
FF7F
0073
00CA
002D
FFA9
FFD0
FF59
008E
FF72
0018
0047
00AB
00CC
010B
FF92
FF4E
FF77
0088
0081
0020
0024
0035
FF86
008F
FFDE
FFD5
0006
FF56
FF87
0054
FF90
0041
FFC7
FFF1
FFB3
FFCD
0048
FFB7
00AF
0090
00CF
0130
0050
FF9D
FF56
FFAB
001F
FF5C
FFFA
0020
FFC3
005C
FF71
FF65
004C
FFFB
003D
FFE4
FFC8
0095
008C
0067
FFB1
001D
FFCF
FF6C
012A
0017
012F
007D
FF89
000D
007F
0052
006A
0036
0043
0077
FFA2
FFFB
FF9B
00A8
009B
FF5C
0043
0096
FFB1
0037
00B2
FF7E
003D
FFB5
0090
00A5
0134
0089
0117
0112
FFBB
0070
FF59
001A
FFA0
FF77
FF67
0043
FFC3
0048
FF69
FFBB
000F
006B
FFB8
002C
FFD7
FF78
FEF0
FEA8
0012
FEE4
0013
FF9B
0272
023D
027F
01A0
005E
FFE0
FFF9
0029
0082
00AA
0056
FFE0
FFE3
0054
FF9B
FF75
FFC9
FFB0
FFB9
FFA2
FEAC
FEA3
FFFB
FF37
FF67
FFD0
FF29
002E
0235
0140
01B4
0257
009D
FFF2
0023
FF89
00AD
FFA2
0096
002D
0024
0002
FF9C
FF90
FF9B
FF8C
005E
FFCD
FEB6
FFF1
FFDA
FFE8
003F
FF1A
FF69
FFE9
021D
015A
0242
016C
FF9B
0008
001E
0016
FF6F
0083
FFAF
FF7C
0085
009B
0082
006A
0035
0010
FF6E
FFDC
0012
FFF2
0094
0040
FEFA
FF26
FFCF
FEF5
009D
001D
0019
0043
0073
FFC1
003F
0016
FFA9
0087
0065
0034
0079
007C
004C
0070
0043
003B
0026
0057
FFD0
00CB
00C8
FF9F
0000
FF08
FF53
FFE2
FFAA
0093
0098
0025
FF4F
FFB1
0027
00AB
002E
FFA5
002C
000B
0060
FF71
0058
000B
009F
FFC6
002C
009B
FFBA
00DF
0086
FFAD
FF42
FFD6
FEF5
FFAD
FFE5
004D
FF82
00A3
00A4
00A6
0059
FF7A
005B
FF59
FF54
FFBB
FFF9
005C
003B
FFE6
FFAD
00A7
FFEC
FFE8
FFCD
00AD
008F
FFE2
FEFA
FFCF
FFC0
FF33
00C3
FFA1
0008
00BA
FFE2
002B
FFDA
FFB0
00A9
FFE0
0084
FF9C
FF97
FF55
0033
FFD2
0083
FFF8
00A4
FF90
0107
00E1
00E1
00FC
FFEC
FFBA
FF08
FEE6
0003
FF96
FFD3
FF65
FF76
FF73
0044
FFE5
FF91
FFFF
FF5F
0018
FFAE
0068
FFB5
FFEE
FF4D
FF5F
FFDD
FFF2
00A0
0035
00C5
0104
FFF1
FEEF
FF81
FF04
FF10
001A
FEF1
FF6B
0025
0046
0015
FF4F
FFC0
0000
FF6A
FFC4
FF58
FF6A
FFD5
FF7B
0014
003D
0066
FF8E
000B
FFF4
00B6
00CD
FEE5
002D
FEF1
FF9E
FFB7
FFF1
FFBB
FFD5
FFC2
0071
FF66
0087
000A
006F
FFE9
002B
0009
004E
FF65
FF5E
FFA3
FF87
0084
FF9C
002B
FF47
FF15
FFE8
FF50
FF14
FF2D
FF5F
FFBF
00CF
00C3
0057
FF94
0040
FF65
FF53
FFA4
FFF1
0085
004A
0053
FFE4
FFC5
FFD2
00A5
FF5C
0082
0017
FF6F
FFD8
FF7F
0008
FFA6
FEFD
FEC9
FF34
00B2
FFB6
004A
004F
004F
FF78
0046
008E
FF8E
FF9F
00A7
FF88
007D
FFFC
FFA1
007F
FFE7
0001
FFCC
001E
FF0E
FF5A
002D
FF31
FF4E
FED9
FF79
FE93
00C5
0011
FFC3
FF8A
FF8B
0006
FFC5
0072
FFE9
FFA8
0028
0046
FF8C
FF8B
FF55
0050
0038
FFF3
0079
0063
FFA2
0008
FF1E
FEFD
FEC4
FE7A
FF1D
FFAD
FF7E
FF99
000F
00B9
FFBA
0000
FF59
FF80
00AA
00A0
FF4D
00A2
002E
0081
FFED
0003
FFFC
0038
FF7D
FF57
FFB4
0045
FF9B
003E
00A3
FF6C
003D
FFEC
0084
FF89
003D
0076
0099
003D
FFFA
0027
007F
0019
FF5A
0096
0041
003B
FF9A
0036
FFD5
0033
FF72
0033
00B1
FF5E
00A6
FFDC
007D
005D
0018
0051
0084
FFDC
FFC2
0039
0067
005C
0065
FFE4
006D
FF75
000C
FF50
FFC5
FFCE
FFDC
0046
FFDB
FFE8
FF9E
FFD1
FFA1
FF65
0023
003A
0025
FFEC
FFD3
007E
0004
FFF1
FF55
FFC6
FFD2
FFD8
0019
0008
0021
0058
0069
004B
009E
FF52
FF8D
FF4B
0034
008A
FF9F
0091
FF64
009B
FFC5
FF72
FFF7
FFA8
FFB2
FFBB
0067
000B
FFB8
0025
0049
FFA9
FFDD
FF7A
FF8D
003C
FF88
0009
0046
FF6C
0013
FFAA
009E
FFFE
0066
000B
FF56
002B
009F
0021
006E
0085
FF9F
FF95
0025
FFDD
0070
008E
FFCB
FFA3
005B
FFAF
0072
FFE1
0038
FF71
002B
FFED
0022
FF8E
0055
0083
FF9C
FF74
FF5A
0032
0027
000F
FFA3
FFDC
0024
0000
00AB
FF83
0049
FFDF
FFE9
004A
0040
00B0
FF7E
FF73
004E
001C
FFB1
FF6A
FF6B
008B
FF96
FFBF
FF9F
FFD0
FF68
0009
FF69
006C
FFA4
000D
0087
0037
000B
FFC0
FFC6
003D
00AD
003D
0017
0055
FFF6
FF64
0018
00A1
FF8E
0046
FF97
000D
FF70
FFEE
005B
FFCB
003B
006A
009A
FFA1
FFDE
FF84
00AE
009A
0011
0078
0008
002D
FF6C
005D
FF7F
0074
0061
0047
FF5E
FFB9
FFAB
FFD1
FF70
009E
0012
FFB7
FFDB
FFF0
0024
0004
0095
FFFC
00B1
007E
FF99
009A
FF76
0070
FFD7
008A
0082
006B
0069
FFBC
FF6D
FFDA
FF8D
0046
FFCD
00AB
0031
0076
FF7E
007E
0097
FFFB
0028
005C
FF8F
FFFF
FFDE
FF80
FFD2
FF66
FF5B
FF82
00A5
0015
00A0
FFE7
FFBF
0003
FFEC
FF78
0034
FF9B
002D
0034
FF83
FF67
0064
FFF4
FF63
00AC
FFCE
00AD
0115
000D
FED0
FECB
FF0C
FEC5
0035
FF56
FFF4
00A2
0072
002A
FFB8
0030
000B
FFE9
FF7D
008B
FFF0
FF96
FFD3
FFE2
0074
0053
005F
FF51
004C
0062
FFC0
0013
FFA9
FECD
FF5E
FEE9
FF41
FF94
0099
005A
00A2
FFF9
FF73
0014
FFEF
007B
FF74
FFFB
FF89
FFC5
0055
FFFA
FFD3
FFDF
FFF4
0067
00F5
0109
00CE
0025
FF91
FF38
FEF7
FFCA
FF4E
007F
FFE4
0025
0039
008B
0033
0028
FF67
0001
FF82
0057
000A
003F
FF5F
FF6E
004F
FF6A
FF69
FF53
010D
00BF
0033
0022
FF1C
FFB3
FF8B
FEE0
FF7D
FF67
002B
004F
FFAF
FF57
FF6C
00A9
FFB8
005F
002A
FFD9
FF98
FF7A
0028
0064
0031
000D
FF61
00A5
01C6
0115
0208
0181
FFC8
0002
001D
FFE5
FF1D
FF66
003C
FF40
FFD4
FFE7
FFED
0028
00A0
FFA3
FF79
FF98
0089
0035
FFB9
006F
0080
007D
0095
FFAA
01B7
014D
01D4
01AD
000E
FFE2
FF36
FFBB
0052
0040
FEFD
FF2E
FF7B
004F
0073
FF9B
0003
0077
0054
0012
0024
0005
FFBA
0017
0048
0084
0034
0057
00E8
0150
00AC
0102
FFFD
0057
FF20
FF8A
000E
FF3B
FFB6
FFF6
002E
FF91
FFCF
0067
0012
FF52
005A
FF59
0059
FF97
00A6
FFD3
FFC6
FF84
FFB9
0089
00FF
0018
0039
009A
0065
0002
FFBB
FFC2
00AE
FFBB
0094
0035
006A
FF72
0022
FFF7
0035
FF63
001F
001A
0016
0026
003D
006A
FFAC
0078
FFFF
FF6A
FFAD
0010
00AD
0095
0046
FFE6
FFC9
FF5D
002E
0050
FFD8
0004
0027
0055
00B7
009C
0032
FFE8
0030
0065
FF77
FFE3
007B
FFD8
0018
0022
FF91
FFCC
000C
FF9E
FFA2
00BD
FF8D
FFE4
FF95
007B
0015
004E
00ED
00E6
FF94
0069
FFEF
FFFA
FF7E
FF6C
0051
0001
FFE6
0052
0060
FF8A
0026
FF81
0058
0036
00E9
FFB3
FFAC
FFFB
FF8D
FF85
006F
FF88
0019
00C6
0053
00D2
FF69
FFFB
FF57
FF64
008D
FF83
000F
FFE0
FFCD
008E
FF57
0039
00A0
0015
009A
FF62
FF51
FF1A
FFC1
0019
FF56
FFE3
FF41
FFC3
014B
01FF
0180
011E
FF75
FF85
FF9E
FFAC
007C
0014
000A
FF7B
007D
0050
FF68
0048
000F
FF70
FFF0
FFFC
FEFB
000C
FFE8
FFA6
FF9C
FF8C
FFE4
FFBC
00BA
015D
01C7
014A
FF60
0063
FF96
FFAB
FF8D
FFC7
005A
0007
FF98
0086
0088
0082
FFA3
FFF4
00AE
0063
FECB
FED2
FF5F
FFFB
FFBD
FFA7
FF1F
FFE3
01C9
012C
01BC
01FE
FF97
0006
FFB6
006E
001B
002F
0070
FFDD
0092
000C
FF86
0047
0069
FFBE
007F
0091
FF4A
0046
FF14
FF30
FED2
FFD2
FF77
FEC9
0056
0096
FFD6
00F2
0069
0002
00A5
FFE9
00AD
003B
002E
FF8D
0089
FFE3
FF8A
FF50
0017
0008
004F
008C
FF04
FFE7
FF2B
0017
FFB2
FF51
FF8F
FF01
0063
00DD
005F
0039
FFFE
0076
FFC8
FF8C
004A
0074
FF70
FFA6
FF80
FFCE
FFF0
005D
0038
002B
FFCD
0078
FF8D
0042
FFC6
FF15
FF80
FF05
FF83
FEAB
FFF7
00E8
0007
00E0
FFB2
0034
0041
0009
FFBA
FF9B
FF5A
FFBD
0035
009C
0086
0062
0069
003C
FFAA
0092
FFD3
FFAC
FF12
FF85
FF33
FFC6
FF54
FF1B
0110
FFE1
0050
FFC9
0059
0096
FFB5
007D
FFB5
0093
005A
006D
FF54
00A4
0053
FFBB
0074
FFB4
0083
FF77
004B
0011
FF6F
FFA2
FF54
FFF7
FFBB
001F
FFB8
FFB9
005A
FF5E
0091
007C
003F
0027
008C
FF93
FF66
FFA7
0067
FF60
001E
00AE
007F
0008
FF68
0077
0023
FF77
FF73
0091
0040
0077
0088
001E
0004
FFE9
FFC1
FFEA
0066
0025
008F
FFEA
0026
0030
0020
0047
FFA3
0002
FF74
FFD6
FFF7
0039
00A0
0020
0059
0002
002C
FF68
FFAA
FFD3
FFF6
FF60
FF84
FFB6
00A7
FFC5
FFF9
FF96
0027
FFB7
FF99
0008
FF50
FF50
FF9C
FF5B
FF77
FFC9
0068
0018
0006
FFB7
0097
FFDC
FF70
002D
FF7B
FFC8
0001
0082
FFFF
004A
00AF
FF80
FFB4
FFDB
FFE5
FFE3
0093
004E
0028
FFBD
0075
00A4
0072
FF4E
0030
FF5E
FFAA
FF66
0028
0046
FF77
FFD6
FFF2
FFD3
FF79
FFE4
005A
FF6B
FF6C
FFCC
009D
0038
0040
FFCC
0020
FF50
0030
0091
002B
0088
0056
FF7B
008E
FF68
0011
FF84
FF57
FFE9
FFBC
FFFE
001F
FF62
FF7D
0016
FFCA
0055
0038
0078
0046
FFE7
0040
FFB8
FFBE
0067
FFF2
006E
0078
0080
0097
FFE8
FFC0
0021
FFD2
0027
004C
0047
FFD9
FF8C
FFE8
FF85
008E
FFCF
FF8B
FF5B
0034
0031
FFC5
FF6C
FFE5
FFC2
0045
0027
FFD4
FF9E
00B1
FFF2
0044
FF83
FFFB
FF5B
0004
00AA
FFDA
FF5F
FF5C
FFDA
FF8C
FF5A
005D
FFF3
FFB6
008F
FF7B
00A7
FFC1
008C
0028
0078
00AE
FFBA
00A8
FFDB
FFDB
FFCC
0011
FF89
0015
0013
005C
0079
FFEE
FFBC
FFAE
FF95
FF66
FFCD
FFB0
00AC
0012
FFCE
001F
FF86
FFF1
0031
FFFD
FFE3
00B5
008A
002F
001C
002F
FF99
FFE2
FF61
FFF9
0011
FFA2
00A8
0096
0053
000F
0085
FF80
0067
FF7A
006A
FFB5
0088
009E
FF85
FFEF
00AE
0001
0084
0025
FFD6
FFB7
FF9A
005F
FFDA
0003
0001
001E
0085
00AC
FFDF
005A
0040
FFFB
0085
FF44
FF25
002C
FF98
006C
007C
FF53
0076
FFF1
0006
0030
009C
FF59
FFF8
0044
004F
0046
FF81
FFB9
FFD1
0072
FFB6
FF9D
00A4
FF32
0093
0021
0057
FF65
FF00
0003
0026
0045
FF71
0048
004E
003B
0063
0079
002C
FF71
0000
FF6D
FFE2
FFE4
FF6C
FFCE
FF7A
006D
00A4
FF6C
00A1
FFE7
FF98
FF4D
FFE1
0019
FFF7
FF0D
FF17
FFD1
FFA3
FF91
FFA3
006C
009B
FFE4
0092
FFC4
FFF6
FFA3
0036
00AD
0027
FFD1
0038
FF7D
008D
0004
FFF0
0001
000F
FF49
0021
FF55
FFFA
0023
001C
0002
FFF7
FF6F
0053
FFB6
0000
FFB7
FF82
002E
FF65
005A
FFC4
FF52
0004
FF63
FFB4
004E
FF67
007D
FF4F
0015
00BC
002C
FFDD
0034
0013
00E1
0024
0051
0070
FFD2
007A
FFD5
00A9
FF6E
0043
FFFE
FFDC
0032
004B
FF50
FF8F
0052
003F
00A8
0062
00A2
004E
0024
FFDA
00CD
009D
FFC5
0034
010A
0064
FFD4
FFD8
FF83
FFBA
FFD3
FF65
005F
FFE3
0073
007C
FF9E
003A
FFF7
008A
FF9F
0041
0026
FFBA
FF84
0036
00BD
002A
009F
0041
00B1
FFF9
00F0
001D
FFBB
FF50
FF5C
FFED
FFB1
007E
FF55
FFD9
FFCC
FF56
FF7C
FFE3
0001
FFE3
000D
0024
FF57
FFF5
00A5
0009
0064
FFDE
0087
0084
0121
01C3
0097
0073
0041
004C
FF5C
FF8F
FF55
FFBA
0060
000D
FFCE
FFD2
FF54
FFBC
0036
00AC
0081
FF5A
008C
0067
0069
FFF1
FFFE
FFDF
FF86
FFC3
00C1
0114
0171
0111
FF44
0082
007F
0046
00B3
0012
00AB
FF6B
FFD1
FFA4
FF95
FF84
002D
0067
001C
FF85
006F
0033
FFDC
003F
FFCF
FFEC
00B7
FFD9
0111
01A6
0167
0081
FF66
FF34
000F
FFD1
FF81
00A3
000B
FFA6
0001
0042
FF6D
FFB5
006E
FFF5
0014
FFEB
FF60
FF8A
FFEE
FF9D
FF83
009D
00CD
008F
019A
00BE
01BF
00B5
0080
0091
0028
0091
001B
FFAA
FFED
0023
FF68
002F
00AC
FF95
006B
0094
009F
00A8
0008
00A9
005E
FF8C
FEFA
FF51
FEAA
FF35
00A3
FFF2
007D
00C8
0078
FFCD
FFCE
0043
009B
FFA2
0030
FF9E
FFC5
007C
0051
FF75
FFE7
FF5C
FFFD
0039
FF7B
FFBA
FFDD
0097
FFB4
FE61
FF5D
FED4
0040
00C1
00FB
0105
0092
0044
00E0
0022
001A
FFCE
0038
FFA5
FF97
0097
FF75
0005
FFA2
FF61
FF62
FF91
0081
FFB6
00A5
0020
FEED
FF1E
FF06
FF5D
0017
0031
00F4
0102
0101
005E
00DE
006F
FFFF
FF98
0024
FF93
FFC8
0082
FF9E
FF69
FF6B
009E
0004
FFE2
0071
0078
FFC6
0046
FFB8
FF8F
FEE0
FFDA
FFC8
FF70
FFA4
FF1A
FF5F
0042
FF30
FFC3
000D
FF66
00A8
FFA5
FFBC
FFBA
FFA5
FF53
0055
00AA
FF9F
003D
005B
007F
FFE4
FFBE
FF18
FFA2
FFCB
FEE7
FF92
004F
0027
0069
003F
FFBD
0002
001B
FF6F
0014
004B
FF8D
0066
001F
00A1
FF5F
FFB0
0025
FFBE
004E
0060
FF79
0005
0005
FF29
FFF2
FFCC
FFA1
0007
FFB1
0051
0003
0031
0062
FF93
004F
FF9A
FFCD
FFC7
00B1
007E
0048
0050
001E
009E
0002
FFD8
FF8C
0069
0057
FFDB
FF5B
FFD6
FEAE
FFA1
0001
FFA7
FF5C
0007
002E
FFF0
0085
FF40
FFE5
0053
0083
FF91
006E
0012
FFE0
FF80
0084
FF89
FFBF
FFB6
0088
0041
006C
FFAA
002F
001F
007A
0090
FF56
0042
FF62
0014
FFB6
FFBF
FFCE
0030
FFC8
0054
FFE2
FF6C
0067
FFBB
FFEF
0043
FFC6
FF65
FFD9
00A2
0035
003F
0032
FF98
FFE6
0060
FF74
FFB5
FFB6
FFEE
00B0
FF6A
000A
FF8E
00AD
FF76
FFE2
0058
004D
FFE8
FFCA
FFDB
FFB2
FF97
FFF8
FFAD
FFB5
0037
00A8
0026
FF6F
FF6F
00A1
FFC0
FF70
0025
002F
003A
FFB3
FF56
00A9
FFA9
0044
004B
002D
FFC3
FFB1
0024
0086
00A1
FF77
FF89
00A0
0053
008A
FF9E
0023
0048
0040
FFE5
FF56
0024
FFAD
FFEE
00A7
FFDF
007B
FF98
003F
00AC
FF77
FF55
FFEE
FF75
005D
0094
FFE9
FFAB
FFE9
0050
FF53
0025
002A
0034
FFA9
0050
FF6D
FF9B
008A
0059
FF5B
FFAB
FF9A
FFB0
FFAA
FF69
FFF2
0058
0027
003F
FF6F
009F
007B
0071
0073
009B
0012
FF97
002C
0053
0051
0002
FF69
FFD4
0097
001B
000D
FFAE
FFCF
008A
0039
0064
FFED
0029
FFA1
0048
FFE4
FFE9
0037
009C
FF60
006F
FFB2
FFEB
FF56
FFB6
FFFE
FF5D
FFFB
0091
FF72
005E
FFDB
0038
FFA9
FF88
FF86
FF64
FF90
003A
0084
006C
0040
FF72
FFB3
FFBB
FFA7
0005
000A
FFCB
FFCC
0073
0065
FFB9
0092
009F
FFC1
FFCC
FFFD
009B
0082
FF71
FFD7
0012
FFFD
FF92
007E
003E
0074
007C
0057
FFEC
0026
FF88
003B
FF8C
0048
FF9E
FF74
FF87
FF4C
004D
004D
0004
FF87
FF6C
FF54
FF86
0082
FFA4
FFC7
FF70
FF9B
0003
0023
FFA4
FF5F
FFDA
FF9F
FFA0
00A0
0027
0010
FFDB
FFE2
000D
0041
0044
FF8A
FFFC
FFDF
0081
002D
0007
FF76
0027
FF77
FFC7
FF80
0042
FF96
FFDA
008C
FF95
0005
FFE5
FF53
0066
FF65
FFF6
0017
002D
0045
FFA2
FF51
004B
000D
0078
0071
0079
FFF9
FFC5
0066
FFEC
FF8E
007F
0086
FFFB
FF72
FFE2
0075
00F3
0000
FFD0
00EE
0032
0065
00FE
FFBD
0034
FF68
FFD2
006D
FFE9
00B3
0014
FFC3
FF98
FFCA
FFD3
FF65
FFD0
FFF2
004F
0036
0054
FF5E
FFA7
0045
0060
FFB7
00D3
00C7
0068
FFB9
00B6
0074
0062
0055
0068
0003
FF7B
003A
0027
0054
FF8C
FF93
0087
0058
008F
0059
0021
0038
0098
0029
003D
FF93
005E
00B5
0016
0001
0013
FFFE
FFF3
003F
0091
0001
FF8F
FF65
0046
FFD5
006C
0039
0068
FFAE
0042
FFA9
009C
0030
FFC0
FFAC
FF9C
0050
FFA5
002E
0015
00A0
00D8
00C9
00B2
FFEA
FFC9
009A
FFCF
FFE7
FF57
FFA8
FF5B
0084
FFA0
0012
FF5A
0037
FFBE
008C
0086
FFC0
008E
00B2
00E1
00EB
0015
008E
FF3A
FF40
0083
FF95
00A3
00BA
00D0
0101
FFA3
FF5C
FFE0
FF7D
FF58
FFC9
0061
0019
FFC0
0034
FFA0
FF50
005F
0029
005B
FF60
00E8
009D
0087
009B
0051
FFF1
FFEB
0080
00AB
003F
0096
0029
FFA0
001E
0097
0097
FFC5
000C
FF9A
00B1
00AE
0035
0068
004C
0021
FF5E
FFF2
003B
00B5
0041
010C
FFFC
FFD4
0015
0019
0008
FFFD
FFD4
0082
0074
FF8E
0046
FFF1
0038
0074
FF87
FF52
0063
0024
0043
0078
006E
009E
0009
FFFB
FFDC
FF06
FF96
FF2D
0013
FE96
FEA0
FE47
FDDC
FF65
FFF2
FF77
002D
0087
0087
0036
FF93
007E
0088
FF94
0055
FFB3
0068
00AA
FF55
008D
002E
00A4
FFF4
FFFA
FEE5
FF43
FEE4
FF27
FEEB
FEF9
FF16
FF7C
FFE2
FF73
FFA1
FFA1
FFF4
FFAE
FF70
FF88
FF81
00A8
0058
00A5
FFEA
FFB2
0068
FFC0
FFBA
FF9F
FF78
FF27
FF47
FFC1
FEE3
FE11
FEE9
FDFC
FE41
0088
FF8D
FF76
0009
FFBA
0014
006B
FF82
001D
FFFF
FF82
002A
FFAD
FFFB
FF6C
FFEF
FFBB
0075
FF60
FFDF
FF6F
FFCC
FF98
FFB8
FEDD
FEFA
FE37
FE88
0085
00B6
0095
FFDF
FF8F
FFFB
0052
FFFA
FFF9
0076
FFCF
007C
FFDF
FFC5
FFF1
005C
FF7B
FF95
00A0
FF89
0051
005B
0037
006D
FF6E
FFE1
FFA3
000B
000C
00A5
001B
003C
FF99
FF8C
0072
FFB6
0096
00A5
001D
FF7F
FFD2
0067
FFCF
FF6D
0012
0078
0066
FF8C
007A
FFD6
FFD5
00BE
FF7A
FF7D
FF23
0056
00F1
00B9
00E4
000B
FFEF
FFCE
FF70
FFF9
0093
FF5A
FFB5
FF98
FFA1
008E
FFF3
FFF0
005F
FF83
FFF7
FFE6
005C
00E6
009C
0013
0048
FF5A
FF2C
FF69
0051
008D
00B3
0121
0005
FFFF
FF60
FF5C
0011
FFE9
007A
FF8A
FF56
FFEE
FFA1
FF60
004E
FF76
0024
FFB1
FF5F
FFA7
0033
FFAC
FFFA
FF1E
0003
FF44
0049
0022
00A6
FFE3
FF63
FF52
0073
0008
0061
FFA0
FFC4
FF5A
00A1
0036
009C
FFA8
0023
003B
FFC0
0079
0071
0055
0023
FF80
FF52
0045
FEF5
FFEC
0054
0034
00BB
FFC9
FFC4
FF67
FFED
FFA8
FFC7
0076
0099
FF91
FFD1
009C
FF60
FF70
FF87
001C
FF81
00A4
FFBD
FFD0
FF74
FFC3
FFDC
FFFC
FFFB
FFBC
009E
0079
0065
FF6A
FF4C
FF97
0035
FFE0
FFDE
0089
008D
008E
FFC2
003E
FFAF
FF93
FF8F
FFC7
FFE7
0075
FF42
0022
FFDB
FF80
FF9E
FF59
FFC3
FF89
FF92
FF83
001D
0098
FFC8
0050
0038
0096
0075
0016
0037
008B
FFDC
FFBF
FF54
0072
0069
FF76
001A
FFF2
FF76
00AC
FF98
FF66
001E
0055
FF5B
0039
000A
FF73
FF8A
0016
FFB7
0098
006F
00AD
FFA8
00A5
FFE3
FFCC
FF5E
FF60
0041
FFF1
FF9D
0026
FFA6
001E
FFC9
006E
0070
FFF5
FFC8
FFCE
006B
FFC3
FF97
FF6B
FFF2
FFF6
007B
FF99
FFD4
006C
0074
FFD7
FFF2
FFBC
009A
FF7A
0099
003F
0005
FF5A
FFF6
FFDB
FF87
003A
00A6
0015
004A
FF67
FFE3
FF75
0027
009C
0039
FF68
FFC8
000F
FFDB
0077
006C
0029
FFD2
FFA7
FF73
FFC9
FFDC
003C
0038
FF64
FFD9
FF8E
FF7F
0070
FF60
FFE2
FF8D
0084
000E
FF9F
0000
004E
00A1
FF9D
0087
009A
0094
0032
002F
FFDE
005A
000A
003C
FFE5
0050
0073
FF82
0075
000B
0079
FFE6
FFD3
008D
FFA8
0079
FFF9
0002
FFBC
0017
FFC1
FF5F
FFAE
FF50
00A6
00A4
FFDA
004D
FFC6
003A
0069
00A0
FFDD
0067
FFB0
00AD
FF5B
0026
003E
0044
FF78
009B
FF8F
002E
FF9F
FFBC
000E
FFE1
FF88
FF8E
FFE5
005C
008A
FF6A
FFDB
FF76
FF54
003B
0024
FF8A
FFA4
FF54
0075
00AB
FF80
FFA1
0084
0099
FFE4
FF65
FF5C
001E
FFD7
FF5A
001D
FF4F
0065
FFBD
FF5C
0020
FFE1
00AB
0015
FFB1
0048
FFAE
0091
FFD2
0012
FF62
FFE4
0073
006D
FF9E
FF9E
0070
0097
FF73
FFEE
FFC9
0083
FF6C
FF9A
005F
FF62
FFFF
FFEB
FFC3
FFDC
000D
FF88
0017
006C
005E
FF83
FF86
FFB0
FFD1
FFE0
003E
FF5E
FF5C
FFD9
0048
FF94
0031
FFA7
008B
008B
FFBB
FFA0
FFE1
FFA5
003C
0074
003B
0072
FFDE
FF85
0054
FFCF
003C
FFB0
FF70
00AF
FF8A
00AD
00AE
0067
003B
001C
0084
FFB5
FFF7
0029
FFE5
FFEA
FFC5
0014
007D
FF98
009B
0047
0071
0016
005F
FF57
0072
FF60
008C
00AD
FFBA
FF9B
005F
FFA9
0081
FF76
FF7C
00AB
0045
007E
FFCB
0045
000E
0019
0037
000E
FF7F
FF48
FFF8
FF38
0048
FFA4
0030
005D
FF9F
FF67
FF7C
002A
007F
FF61
0057
FFC8
FFF8
009E
FFC4
FFF3
FF5A
FF76
FFB1
FF66
001F
FFD5
0005
FF7D
FF4E
FFCE
003E
FEF8
008B
0018
0015
0000
FF66
FF71
0025
FFC7
0097
FFE1
FF83
004F
FFB9
000B
004B
0091
006F
0045
0046
00A5
FFA7
FF42
FF9E
FF8F
FFD0
FFC8
FFBF
FEF3
0055
FFC2
003C
0011
FFCB
FF7D
FF6D
0079
0097
0035
FF73
FFDE
0054
0064
FF7B
FF4E
0052
FFD6
FFAF
FF59
0005
006F
0097
0008
FF9C
FF0A
FFAC
FF6B
0029
FFDB
FFA5
FF76
FFBF
FF72
FF8D
00AC
FFED
000E
007F
00B2
001A
006B
FFC8
FFBC
009D
00FD
0100
007F
FF96
0046
FF96
0033
FF17
FF1D
FF36
FF5A
FFFF
004E
002B
FF93
FF5C
FFB1
FFEE
002D
007D
FF94
FF82
00A2
FF77
FFFB
001B
0011
002E
0025
0035
00DD
0025
FFB7
0046
0088
FE39
FEDB
FF1A
FE84
FFBB
0026
0090
006E
001D
0051
FFD4
0038
FFF7
FF94
004A
0012
FFD1
0093
FF5A
FFBB
0024
0120
0104
0083
0056
FFF2
0074
0009
FEB5
FF71
FE81
FE56
0021
00A8
FFD7
FF68
FFC4
0002
FF84
0038
00B3
FFF0
FFCC
FFE0
FF77
0088
FFDF
FFDB
FFD4
FF7C
FFC9
FEFC
FFE2
0016
FFAB
0018
FF8C
0002
002C
0021
FFDD
FFCC
FF7B
FFD7
FF8A
0051
FF9B
FF65
0014
0023
007E
001D
FFCA
0070
000F
FF6C
FFA9
0027
FF6F
FF4C
FEFB
FEFA
FF5D
FF99
FF74
00A2
0061
0022
0077
FF6D
FFFB
002D
0075
0069
FFB3
009D
FF7A
0086
00A9
FF8F
0051
FF5F
FFE0
0001
FFAE
002D
FFD4
FF8B
FFE5
0016
FECA
001F
FF77
0073
FFB7
FF88
FFEE
0031
FFD3
FF65
0023
008C
FFD8
FF9F
FFEA
FF61
0076
0077
0021
FFD3
0065
0016
0006
FFC3
FFF5
FFB6
FF58
0017
FF86
FFA2
FFA3
0037
001F
FF9C
FF64
0029
005B
0006
FF9E
003A
FF70
FFEC
FF8C
FF95
FF99
FFD6
FF5E
FFD9
0005
FFF7
FF8B
0031
FF38
FFB7
FF78
FF80
0033
0030
018C
011D
01AC
0067
FF71
FF62
FF8F
0012
0035
FF5C
00A2
007C
FFB6
FF6A
FF8F
FF7C
FF7C
000C
FFA2
FFD2
0068
FFF7
0054
FF33
FFEE
0028
FF87
FF66
0143
0139
00E5
0103
FFE4
FF58
FFC6
FF8E
FF73
00A4
0025
0055
FFBF
FFDA
FFA7
FF72
FF92
006E
0040
0015
FFAF
004A
FF1C
FF65
FFE6
0078
00C5
FFBA
018B
017B
00A5
00E9
FFE4
00A8
FF93
006E
FFC9
0053
FFE9
0021
0074
006E
0084
FF68
0045
FF81
FFE2
0012
002C
0057
00F7
FFCE
009F
003F
FFDD
FFEB
00A7
0090
009C
00B5
FF98
FFCA
003D
FFFF
FFE8
FFCE
001D
0020
FF88
FFF2
0016
0015
FF9D
0053
FF58
FFCE
00B0
005E
FFF6
0092
0077
00CA
00B6
0089
0005
FF87
FFB6
FFEC
0024
0007
FFBA
FF51
FFFD
FFB5
0051
FF5C
001C
00A0
FF8E
FFFB
FF71
002C
0011
FFDF
0054
00DB
FFDE
FFA2
00E2
007E
00EA
0086
0079
FFED
005F
0098
0017
FF8F
FFAB
FF98
FFA5
FFBC
0014
0021
FFE5
0026
FF70
FF71
FF8D
0008
FF9B
FFB8
0027
00BA
FF9F
007F
009D
00CC
00FE
FFBB
FF8C
0091
FFFA
001F
003E
0040
009C
00B0
0050
FFB7
0088
FF5F
FFA2
008A
FFAC
FF9D
FF7F
0082
0001
003E
FFA7
005F
0057
FFBD
FFE1
FF9B
00A9
0033
0097
FFBC
0069
005F
0046
00A6
FFDF
FF80
003D
0050
0015
FF9C
0001
FFBF
FFE5
0034
0059
FFA3
FFDF
FFB2
FF93
0062
0093
FFD1
005C
0091
007B
FF93
00A0
FFD4
FFC7
FF64
0001
FF74
FFAA
FFC1
0071
0089
FFBD
0080
007C
005D
FF82
0042
0099
0046
FFC6
FFFE
0031
0006
FF78
FFBE
006F
0083
FF81
00A1
FFC5
003F
005A
006E
009D
FFBF
007F
FF81
004A
005A
0042
FFA7
0084
FF89
FF63
0051
FFF6
007C
FFDA
FF8E
0073
000F
FF97
004F
0007
0024
FFF0
0074
0076
004B
FF77
007B
003F
0049
FFD2
0087
0051
FF7A
FFE4
0089
FF61
00A9
0040
002C
FFB3
FFA2
009F
FFBC
0067
FFDC
FF7D
FF54
0011
00AA
FFD1
FFD0
FFC9
0009
FFF2
0086
0003
FFFF
FF85
00AA
FFA5
FF69
003A
0020
FFE6
FFE5
0068
FF9A
0078
0039
FFE6
FFF7
FFAB
005A
0004
FFC5
0027
00B4
FFEC
0099
FFCF
FF66
FF9D
FFEC
FFA3
FF55
0094
007B
005E
FF8D
FF7F
FF69
0052
009E
FFEB
FF81
000A
FFCF
FFDB
002E
0053
FF7B
FF5E
00B4
FFA8
FF64
FF96
FF5D
FFDC
006C
FFCC
FFF2
0046
0006
0087
0083
FF56
0068
FFF3
00B4
FFFB
00B0
0061
FFAA
0014
00B5
0081
FF72
004B
FFCB
FF52
FFE4
FFA3
0072
FFCA
0079
FF54
FFC0
FFA8
FFA2
FF6B
FF97
0016
FFB9
FFE5
FFD7
0087
0097
0005
FFC8
FF79
00A4
FF66
FFB9
FFBF
FFC5
FF8D
0067
FF7D
0033
FF7F
FF6B
0099
FF92
007B
0011
FF6D
00A3
FFA9
0083
FF90
007F
FF56
0004
0061
009D
0093
0076
0088
FF98
FFBA
FFBA
FFDA
FFDB
0013
FF8D
0049
FF91
FFC0
0007
0072
0059
0037
FF88
0016
FF75
FFDF
FFE8
FF5A
FFB4
00A4
00A5
FFCE
FF61
FF93
FFDF
00A8
FF84
0062
FF76
00AF
FFD9
0060
FFCC
0031
FF96
FFC3
00DB
00D9
00CC
FFAA
FFE9
FEE6
FF43
FFC7
0035
FFD1
FF88
0026
0075
FFD9
FF88
FF97
FFA7
FFBE
0034
0028
004E
FFD1
0075
FF9C
FFFA
006E
FF91
FFB9
00CA
000D
0080
FED6
FFBF
FF3D
FEE2
0029
FFA4
FFDC
FF6D
FF84
FFBC
FF73
0094
FF53
FFFD
FF7F
FFC0
009E
FF8E
00A7
FFA0
005B
0018
008C
0018
004D
FFDA
FFCB
00D8
FF3D
FF52
FFD9
FF46
00A9
005A
0024
008A
FF66
FFB3
FFF4
FFA4
005A
0099
FFEA
FFCA
00A6
FFF2
FFFE
FFD1
0091
001B
0061
0073
000B
002A
00BD
0011
FFE6
001A
FFAE
FFD0
006C
0080
FFDF
FF68
FFE4
0044
FFF4
005B
FFD0
0035
FF92
0058
0012
FF9C
FFBC
0061
FFEC
FF95
009B
0043
0109
0053
005D
00F7
FFC0
0008
FF63
FFA7
FF7E
FF9B
FF55
FF61
00B2
FFA6
003E
007E
001B
FF87
0055
0026
0058
0061
00AE
001E
FFBC
0030
FF60
0084
FFDF
002D
00D3
008B
FF92
FFB4
0038
FF84
008C
FF70
006A
0081
FF97
FFEC
FF8B
0052
0011
0030
FF97
FF9B
FF64
FFC3
001A
0082
0036
FFE0
0097
0049
0101
0072
0014
FFC7
000A
FF32
FF78
FFC7
001C
0023
FF90
FFD9
002C
00AC
0055
0099
0062
0023
FF96
0040
002F
002A
0002
000E
FF55
FF9C
FF24
FFFF
FECB
FEAC
FF27
FF74
FFEC
FFB5
0018
FFCA
009E
009C
0007
FFC3
0057
FF61
FFF8
FFCB
009A
FF56
0012
0058
0000
FF73
00A7
000C
FFBF
FF38
FF91
FF79
FEA6
FEAE
FFB5
FEDE
FF97
0009
0065
FF65
001C
FF7C
FF5A
FF64
007A
FF7E
FF65
FFF1
0080
FFAE
FFE9
FF62
FFF7
0022
001B
FFC9
FF50
FF09
FF66
FF07
FF99
FFE0
FFE0
FFBB
0024
0048
FFBA
0033
FFF3
FFFF
0062
FFB7
FFC6
009C
FF67
FFFF
0098
002C
0014
FFAC
FFCC
0087
0015
000B
FF06
FEE9
0036
FF65
FF5F
FEA6
FF7C
FFD2
0020
FF81
0024
005E
FFE1
0091
0039
0090
0034
FF80
FFC2
FF9C
0094
0063
0045
FFBE
FF96
0061
FFF8
FFA3
016D
00A1
0106
013A
FFE6
0110
0002
FFE3
FF4F
0019
FF9E
FFD7
FF59
FF5F
FFF3
0077
008B
FF73
0016
0094
FFDE
007A
FF84
00A0
0060
00A0
0041
FFD4
01DE
00F5
010C
018C
00C6
00FF
0000
00D4
0012
FF24
FF91
FF6A
FFBF
00B3
0038
0050
00AD
FFD7
0073
FFED
0086
FF92
00A1
FFA3
FFC9
005E
FFD7
0028
012F
019A
00E7
00A8
0024
005F
FFF1
0035
FF9A
FF1B
FFD7
004A
FF8C
0028
003E
FFEA
004E
FFE2
0006
FF5A
0048
003E
FF5F
FFD8
00AF
FFE9
0005
0097
00A9
007A
00C2
00E1
00B2
00B8
0096
0164
0048
FF6C
0086
FFFB
FF69
0012
FFEB
0089
FF9A
0078
0017
FF66
00A8
0005
FFBD
FFF9
0083
FFC0
FF9B
FF80
0019
00C1
0050
FFFA
0047
0081
015D
0087
00AB
FFFB
FF92
008E
FFF8
004D
00B3
FF63
FF76
0053
FFB7
FF97
FF62
FF5D
0062
FF83
FFF6
0027
FFEB
FF5A
00C4
FFAD
00BA
00E8
00A7
00CA
00B7
0098
008C
008F
FFCB
002A
0097
00A9
000A
FFEF
FFB7
00A6
FF87
001D
FFB8
FFB2
FFE3
00B3
FF63
0021
FF71
FF89
0041
005E
0006
0019
002E
007A
0165
015D
FFCC
0021
0095
FF53
0072
00A2
FF73
FF8C
00AC
0010
FF5A
FFAF
FFF3
0045
0059
00B3
FFB9
0012
0012
FFE5
FF8E
00AC
0084
0006
002A
FFA4
0014
0048
0008
00B3
002C
FFD8
0066
FF8E
FFD9
FFCD
FFE8
0066
0001
006D
0021
FFCD
0072
FFA9
FFA5
0005
FFAE
FF5A
0034
0008
FFEF
00A7
001C
0082
FF82
001A
0088
0020
0052
FFD5
FF74
FFF4
FFDF
0089
FFAE
00A6
00AA
FFAE
FFD3
0090
00AB
FFEE
FFC4
000E
004A
FFB1
0054
FF67
FF65
FFDA
FFCF
FFC0
0002
FFC3
FF97
FFBF
00AE
FFE0
FFF1
001D
00B3
FFAA
0045
0052
002C
FF71
0046
FF6C
0023
0058
FFA0
0081
FF5C
0081
FFF1
FF9C
FF88
00A3
FF6C
FF9B
FFCD
0030
0013
FF7D
FFBC
FFA6
FF9C
FFE4
004D
FFA2
FFD8
FFDD
00AD
00AA
006E
FFAC
FF6C
FFC1
FFB5
000A
0067
0083
007E
FFD1
0045
FFC6
FF6B
0049
FF54
FFE9
FFC7
0049
0065
FFC1
0075
FFB8
FFF1
0057
004A
00B0
FFA5
003C
0023
008E
FF83
0059
0018
FFAF
FFF3
FFC3
001A
0087
0017
002B
0005
FF5F
FFA0
FFFC
FFB9
FF8D
0001
FFC2
FFA9
FFEF
FF79
0093
0080
0048
FF6F
005E
0069
005B
FF73
0031
0077
0016
0033
FFF1
0008
FF58
002D
FF6B
FFE8
FFB3
000C
FF7B
0040
0065
FF88
FF73
FF82
0082
0006
FFF2
FF71
0032
0081
0070
002A
FF68
FF75
FF5E
FFA8
FF7C
FFA9
FFD3
009B
0027
0076
0047
FF75
0050
FFAD
0031
FFC7
00AD
FFAA
FFAE
0094
FF55
0044
004C
0074
00A2
00A5
FF63
006D
0030
0032
FF7B
0031
00A5
0091
FFE8
FF5A
FFCC
0071
0043
FFF0
FF60
FFE3
FFF2
0097
002E
FFBC
0007
FF62
00A4
FFCD
FFF5
FFCA
003C
0037
004A
FFAC
FFBC
FF74
0037
FF5A
0021
0081
0087
FFEA
FFED
FF68
003A
0070
FFA2
FFE5
0075
0084
FFA4
0012
FF92
FF71
008E
006F
005A
FF5C
007A
FFE9
FFC4
000F
FF6B
0059
001B
FF8E
FF90
FF8D
FF61
0070
00CA
FFA7
FFB1
FFF0
0046
FF97
FFA2
002E
FFBD
FF65
0062
002B
001A
0050
003C
FF95
FFCC
FF79
FF7B
003D
007E
00A4
002B
FF8C
FF6F
006B
001A
007E
00B4
009A
00C6
FF36
002D
0051
FF88
003C
FFCA
00AF
FF66
0019
FF86
0048
FF8B
FF9F
FFFA
0091
FF96
FF82
0059
FFFE
0090
FF80
0032
FFA0
FF84
0096
0074
00AB
000D
FFC2
FFB2
0080
FF8C
FFC2
FFDC
0022
FFB5
0091
FFAA
0088
FF71
0035
008C
FF87
00A4
FFEE
009C
003C
FFB7
FF90
FFB8
FF6D
FF7F
FFC7
0038
00B9
FFD4
FF50
0009
FF69
FF45
FF96
00A5
0080
FFDA
0034
000B
003C
003E
002C
FFAA
FF5A
FFED
0087
0016
0072
00AE
FF85
0043
003A
00A8
010C
00A5
0006
00CC
FEE1
FFCF
FFFF
FF43
0050
0009
000C
FFDE
005D
0096
009D
FF8B
0085
0050
FFA4
FF65
FFAC
008F
002C
004B
FFA7
004A
FF55
FFD1
008E
FFE5
00D4
0005
FFA3
FF49
FF8B
FEE2
FF78
00B6
FFCD
0095
00AE
FF95
FFAB
0039
00A4
0092
FFFE
0066
FF80
00A8
00A2
FF88
FFBB
FF6F
FFAD
006D
003A
FFCF
0027
010E
FF9A
FF4E
FEF8
0019
0094
FFD3
FF8B
FF85
FF7A
0018
0097
FFFC
0075
FFEC
0047
0050
FF8A
FFC9
0032
FF67
FFCD
000A
00AD
FFF7
008E
0003
0086
0041
FFC8
FF20
FF66
FF6D
0035
FFD6
FFC1
FFA6
0084
FF9F
FF9B
004E
FFBE
FFFF
FF85
00A1
007B
007E
FFDA
0058
FF7E
FF52
FF50
001D
000E
0023
FF6F
0003
FF8D
FF2D
FF92
FEDF
00C4
0072
FFEC
FFF4
002C
0073
FFE1
FFAA
0081
0039
FFEB
FFF8
FF94
002B
FFCD
00AE
FFF6
FFFA
0015
0090
0086
000A
006A
0039
FF3B
FED2
FF2F
FEE5
00E5
0016
00F2
005E
002E
000D
FF79
FFD2
FF70
002A
FFEA
005E
FF98
FF86
FFDC
0095
0049
FFE1
0006
FF67
00C7
0059
FFD2
0038
FEB5
FFE5
FECB
FF71
FFFA
00A0
00B3
0090
0028
0089
FF65
FFC1
FFA3
00AC
FFD8
004F
0040
FF97
FFA2
FFAE
FFDE
FFA1
FF53
0082
00E4
0005
0004
FF90
FFAB
FFDE
FEED
FEF2
00F2
00B4
FFE8
00B5
FFB8
FFCE
005F
006F
FFD9
009D
FFDD
005F
FFF7
008B
008D
FF6C
0096
0070
0066
FF93
00AB
00BB
FFF3
00DD
FECB
FEF0
FF7A
FF87
00BD
FFE1
012F
FFE9
FF7D
FF51
0017
0097
003A
0072
FF4F
000B
FFEE
FFFE
FF64
003E
0000
005E
FFF9
FF82
0075
FFCA
00C2
0065
FEF5
0010
FF70
FED5
00B7
0032
00F8
00FC
00A8
FFFF
FFED
005A
FF78
000E
000E
FF6C
FFDE
007C
007B
FF6F
FF6C
FFAB
0084
FF7C
006C
FF90
0044
FFEC
FFF3
FF2D
FFBA
FF2B
009D
00D8
FFCD
00D6
001D
FF79
FFE4
FF86
0045
005B
FF6F
0001
006D
0095
0002
009A
0009
FFD5
007C
FFFA
0015
001A
0097
0093
FF66
FF50
FF8C
FFA4
FFF7
00BA
0050
0018
FF70
FFA0
009D
FFB8
FF87
FFF0
FFB9
FF59
FFBD
0010
000D
FFCE
FFEA
00A1
FFD4
FFA7
FFC3
000E
0079
FFB5
FFD6
FEE1
FF6D
FFED
001B
0069
FFE8
00A8
FF5D
007B
FF90
0082
FFCA
004F
FFBE
008B
FF7A
FF8C
FFFB
FF69
FF92
009A
00A5
FFD1
00B1
002B
FFCE
0064
FFC2
003C
FF37
FFC9
FFB3
FFC9
FFA4
0105
0069
0064
0002
FFB5
FF82
FFB1
FFD0
005A
000B
FF67
FF55
FF6F
FFDD
0097
002C
0068
FFF1
FFCD
FF73
0081
0060
FF89
0003
FFF9
0029
009B
001A
000B
FF5F
FF61
FF90
FF5B
0051
004C
FF79
0078
FF82
FFB7
FFA3
FFCF
FFA5
FFFA
FFDF
00AA
FF5F
FF7E
FF60
0028
FF5F
0074
0003
000A
0013
FF87
FF96
FFBC
0020
FF96
FF77
00A3
FF56
0069
0064
FFB7
FF7E
FF7F
0046
0031
0061
0099
0040
FF82
FFA0
0076
FF94
FF65
0045
FFDA
0093
0033
FF6F
009C
FFA8
FFC3
FFD8
FF5F
FFFB
FF78
FFDA
FFC9
005C
0068
FF83
FFCC
FFCE
FF82
0067
0047
FF8F
FFCD
FF6E
002A
FF7A
00AA
0062
FFD5
0016
008E
0010
FF8C
FFD2
0079
0031
0030
0081
008C
0094
FF70
000F
0054
0058
0024
FF86
0065
004A
FF6B
FFEE
FF89
FFC4
FF52
FFD9
0010
0028
0037
0074
FF98
FF76
007C
FF83
00A6
0079
FFFC
00A7
FF6D
FFB8
002D
FFC8
0095
FF6C
0017
0027
003C
FFAF
FFD4
007E
FF98
007A
001C
0061
0052
FF9E
001D
0085
FFED
00AD
FFF6
FF86
FFDB
00A6
FFC7
0088
008E
FFD1
FF71
0059
FFC4
006A
FFEF
0000
0069
FFDB
FFF2
FFD9
FFD4
0010
0077
FFD3
000D
0040
FFB6
FFB7
00A1
0059
0021
0036
FF5D
002C
0008
0019
FFD3
FF75
FF9A
00A5
FFE5
FFFA
FF67
FF61
0052
0014
000A
FFAA
005F
FF8E
FF97
FFF5
FFBA
FFAB
0038
003B
0078
FFE6
FF6C
FFB7
00AF
002A
0051
FF55
000D
FF61
001F
009D
00AC
0016
FFF9
00A2
0043
FF6A
FFF9
FFA8
FFFA
FFF5
0022
FFD3
FF8F
0007
007B
0040
FFCE
009C
0096
FF9E
FF63
005B
007A
00A9
0091
002A
000F
FF5D
FFAB
FFF7
0034
001B
005C
FFB7
001E
FF73
FFE7
005F
004A
00B3
FFB7
0004
FFC8
FFEE
0083
0047
008C
FF9B
0088
FF67
0092
FFCB
FFC3
000D
00A0
FF65
FFD3
0083
FFE1
FF9A
FFEB
FFDE
0096
0063
0005
0097
FFDF
FF4D
FF98
0024
FFC2
00DA
0098
FFC9
0039
0065
00B4
008E
000A
0068
001B
0018
FF7A
FF81
0011
FFB0
FF5B
0052
FF5E
002A
0017
00AC
FFFE
FF4E
FFFD
0064
009A
0024
FFFA
00CC
FFCE
0044
FFF9
FF77
FFE4
FFB1
0049
00A3
FFB2
0073
FF69
0013
FF6D
00A0
0066
003C
0078
0038
00AD
0050
009C
FFEF
FF61
FFF7
FF66
005E
0037
0067
FF8F
FFAF
0014
00B8
FFEF
FFEB
0053
002C
FFBF
FFE6
FFA3
00AB
FF83
FFD6
FF5E
FFA4
0068
FF9A
FF70
FFFB
FF56
FF56
0057
004B
007E
00BB
007C
FF9E
00A2
0094
0083
001C
FFB9
0081
0055
00AF
FF8C
FFA3
FF9F
006C
FF99
FF6C
00B4
FF5E
007B
FFD8
007F
001A
0094
00C4
FF7B
FF96
FFD3
00DF
012C
0093
00C8
FFD5
00AD
00E7
FFF1
0001
FF76
0018
0005
FF86
FFF2
FFCC
000C
0024
FF57
0063
0052
FFD7
FF67
0062
00AA
FFCD
FFE9
FFBA
0045
0027
0071
00EA
00B9
0019
0024
005A
FF93
FF72
0090
FF70
004E
009B
FFB4
FFD8
001E
008C
00A1
005A
FF70
003E
FFE5
FFFE
FF64
FFBD
0092
001D
FFE4
007A
011E
00FB
0052
FFBB
FFEC
00D5
005C
0011
0029
FFD5
0071
0011
FF7B
FF81
0010
00A0
FFC3
0087
0063
FFAC
FF60
FF79
0056
FF64
FFA3
FFD0
001E
0029
0093
00AF
00C4
005A
FF74
0057
002D
0016
004E
FFE3
FF87
0040
000E
0037
FFCE
0095
0025
FF75
FFF4
005E
006F
0005
008F
FF7E
FFB2
005D
005B
00F3
0131
0022
0132
FFAA
FF79
FF90
FFCD
FFAE
FFC5
FF84
FFBB
001D
FFF2
FFCE
005E
0092
0061
FFC9
005B
FF89
FF83
FFCD
0073
FF77
FF36
FF4E
0052
00E1
005D
00C9
00BB
001F
FF8D
006B
FFA8
0047
FF59
FFDA
FFD0
0014
FF6F
006D
FFA2
0046
0073
001B
005A
003C
FFD2
0071
FFBD
FFEC
0028
FFA6
FF8D
00A4
0122
014C
00C3
0023
0078
FF5B
FF8C
004D
0076
0087
FFE8
FF74
FFF0
FFA5
FFBC
0065
FF70
007A
FFEF
0029
FF75
FFCB
FF77
0054
001F
FFA4
FF50
013D
006C
002B
00BA
0088
FF3D
FF90
0087
FF90
FF7B
001D
0084
FFFF
00B3
0046
FF6E
00B4
FFE5
FFBB
001A
FFC0
FF72
FF53
FFF3
002A
FFCC
0062
FF66
0055
002B
002C
0058
0054
007D
0096
FF8B
008E
FFCA
FF7A
0086
0037
FF8D
FFED
FFBB
005A
FFF6
00B3
FF68
FFD0
FFFE
0004
FFC3
FFFF
0036
004D
001D
011E
00B4
0119
005C
FFC7
FFAC
FFE0
FFA0
00A8
FFC3
FF76
000E
FF6B
FF7C
FFA4
FFF8
FFEF
0070
0059
FFEC
FFCB
FFC3
0066
FF65
FE82
FF97
FF28
FEAB
FF6E
0067
004F
0018
FFE5
FFEE
0092
008D
FFA1
0073
FF99
FFA1
0040
FFE1
00A0
FF73
0008
009C
0095
FF8E
FFD6
0032
FF8B
00AD
FFC2
FEB9
FEAC
FE9B
0061
FF61
FFAD
FFBC
000E
FF52
FF89
0082
0099
0069
FF5B
FFC7
0035
FFB5
0096
0033
FF70
0095
00AA
FF6E
0011
FFC1
FFDE
FF93
FF4B
FFD1
FF30
FE9C
FFF7
FF93
004B
FFB6
FF7B
FF7C
004B
FF95
0065
FF9E
FFC8
FFF9
00A0
009C
FF9D
FFD5
FF8B
0007
FFF6
0092
009D
FFDC
0004
0093
FF9D
FE80
FEEE
FF14
FF70
FF5F
FF2B
FFFF
FF94
FF4C
FF89
0055
0084
FFFE
FFE7
00B1
FF9A
FFA1
FFBD
FF91
FFDB
0097
002E
FFE7
00A1
FF66
FFA0
001E
0030
FF62
FFE4
003C
004D
0035
FFC7
FF74
FFEC
FF83
00A5
FFFD
FFC6
0065
0003
FFC2
0077
008A
0047
FF63
001E
0065
FF86
FFA6
008E
FF59
005F
FFFE
FFF4
FF57
0074
FFD6
0014
0044
004B
00A5
0010
FFE5
00A3
0039
FFBC
FF81
007D
FFD3
003D
FFFA
FF99
0027
FF6A
FFE8
0014
FFEC
005D
007A
006A
FF62
FF9E
0011
00A1
007C
007F
FFC1
FFED
FFFB
FF89
FF60
00A6
FFAA
FFAD
FF6F
009F
0024
0041
0096
FFD0
0031
FF62
FF99
007E
0063
FFD1
FFD8
0012
FF55
FFAC
FF9E
FFAB
0070
FFB7
FF9A
000A
0088
FFAA
FF6F
FFD4
005D
0018
0077
00A8
006F
0029
FFFF
FF60
00B2
FFDE
FF89
0042
FFBC
0026
0024
FFF4
007D
FFB1
FFF7
0015
003F
006C
FFE0
003A
FF8A
00A0
FFDA
0056
FF5D
FF9B
0000
008C
0010
009E
FFFF
0001
FF7E
0068
FFA8
0087
008B
0099
0003
003B
005C
FF7B
0021
FF59
FFFC
FF80
FF8A
FFCD
FFE6
0028
FF65
FFF9
FF8A
0014
0032
0017
004F
FFBF
005E
FFE5
FFF9
0030
FF51
0033
0024
FFB8
FF6A
FF6A
0091
003E
FF77
FFC9
001C
0071
FF5D
FFA0
0088
FF4F
FF95
009F
0024
FFA9
FF63
FF51
FFA1
0082
FFDF
004D
0090
FFDD
FF8F
0001
008D
006A
FF61
0044
0019
008D
FF77
000C
0083
FFDD
FFF9
FF67
FFAE
FFBE
009C
FFB0
FFEF
003B
FF80
FFF8
0052
0081
002B
003A
FF77
0098
FF78
005D
FFA8
0099
004F
0059
FF98
FFE8
0028
005D
FF74
009F
0085
FFA9
0070
0000
FFF0
FFBB
0018
004F
FFDD
0029
0043
0045
FF63
007F
FFED
FFA8
FF9F
FFFA
0084
FFD1
0057
FF6B
FFF6
00A9
0059
FF93
FFFB
FF9E
FFDD
005D
005D
FF9A
0094
001F
FFCE
FFFE
001F
0014
FFF7
FFFE
FF87
006D
000D
FF7A
005B
0095
0099
FFCF
FF7D
0004
FF78
009E
FF92
FFAD
FFE1
0078
0109
008B
0029
006B
00C2
0040
00E6
000D
0047
009A
008A
0099
FFA1
FF7D
FFB3
008B
00A4
007C
FF75
0097
FFDE
FF51
FFEA
FF61
0010
FFCA
FFFB
00C8
0124
00D5
008B
0130
0153
0039
00CB
FFB3
FF62
0040
007E
FF88
006B
007A
0091
FFA9
008B
FFBB
000C
FF5C
FF55
004B
FFE7
FFAC
FF94
003E
FF53
010B
0008
0036
0075
00B9
008C
007F
0160
002D
FF55
FFE5
0085
FFB4
FF6F
005B
001F
0013
FF60
FF7A
0029
FF93
FFFA
0010
FFAE
00A3
007C
0054
FF6D
0012
009D
0025
0149
0046
00B8
008A
00F0
FF79
FFE3
FFAC
0081
FF59
008C
0073
FFB5
0064
FF57
00A6
0009
FFB8
FFCA
FF5E
00A8
FE6E
FF44
FEFA
FFAE
FF47
FFA6
FF97
FFE2
FFD4
FFFF
0003
00C0
FF90
0017
FF97
007F
0095
0007
FFCC
FF9B
FF5A
FFA9
0031
000A
0098
FFD7
0040
FFF5
FF13
FEBB
FEFF
FF04
FFEA
0039
FF69
FEFF
0068
0076
FFF6
00C4
00A5
009E
FF90
0082
0043
FFEE
000C
0073
FFF6
FFD3
FFFA
001A
FF8A
008D
0038
0030
FE7C
FF34
FE8B
FE79
FFA8
FF7F
FFBD
FF0D
0051
FFF6
0115
0080
003C
FFC1
FF69
00A3
FFB2
FFE1
0032
FF56
0069
000B
FFAD
FF60
FF83
0087
0041
FFA3
FF78
0056
002C
FFEF
001B
FFE0
0080
00EC
FF92
0026
FFE6
FFF3
FFA7
006C
FFF6
000F
FFB7
FF8E
FF6A
0047
FF91
0041
FFD9
FFE3
FFF3
FFCA
FF73
FFB9
0049
0048
FFC6
0003
FFD9
FFE5
FF9F
00DA
FF9B
FFA1
FFB2
FF84
002E
FF65
FF7A
0031
FFC5
0041
0011
FFA3
0033
FF76
000B
FFE5
FFA8
001E
0080
00B0
003B
FFF3
FFAE
FFBB
0043
001B
00DD
0019
FFD8
FFDE
0078
0034
0024
FFC2
006E
FF5A
007F
0000
FFD7
FFF8
003C
FF4E
007F
FFE8
FFC7
FF78
FFEC
FFFA
FFF1
004E
FFF8
00B5
006B
00B8
FFBE
0022
FFCA
001B
0086
FF6B
FF66
0075
FF98
003B
000B
0071
FF76
FF79
0010
0098
FFDE
FFBD
0024
0097
0078
00AC
FECF
FEEF
FF9E
FFE9
FF55
FF42
0003
FF01
FF27
FF56
FF69
FFA3
FFC9
0027
001A
000A
0031
FFA8
FF68
FF75
FF9E
FFFC
0074
0047
0062
FFC7
FFDF
FFD6
FF0D
FEDE
FF99
0028
FF29
FEFE
0001
FF46
FFC9
FF9B
FFF1
FF35
0036
FFF1
002C
FFEE
FF8B
0000
0003
006B
004F
0036
FF71
0048
FFFC
0087
0095
FF62
FFE8
FED8
FF48
FF8A
FF1F
FFF7
FEF1
FF2B
FF6F
FFA1
FFE5
FF95
0037
FFD7
FF4B
FF70
0007
003D
FFDA
004B
0004
FF67
FF93
0075
004C
008B
FF75
00A9
FFBA
FF72
00D4
FFD1
FFFE
FF4D
FFDE
0051
FFC3
003E
FF92
0030
FFC4
FF99
FFB8
FF88
008B
FFDA
FFA2
FFE8
FFC0
0058
00A1
FFE9
007A
0014
FF80
003F
0022
0056
00AB
000C
0051
0019
FFBD
FFE9
FFC7
00B2
003C
FF5F
FFBC
0028
FF5D
FF56
FFEB
FFC1
FFEA
FFA6
FF85
003B
0003
FF90
FFBD
001E
FF66
FF85
FF87
0091
0078
0075
0011
FFFC
FFBA
FFF3
FF61
002F
0064
0005
FFCB
FFAB
0031
003F
0080
FFC6
005F
000F
0086
0009
0002
0017
0057
009E
FF65
FF60
00BE
002A
0047
0019
FF32
0021
0018
FF7E
FFBD
0077
FF6C
008A
FFA3
001D
0095
003D
FFDC
003F
FFC4
FFAC
00AD
005A
0030
FFC9
FF5C
FF54
000F
0059
0009
0073
FF57
FFCB
FF9E
FFEB
FF65
00A0
FF9B
0092
FFE0
00A8
000F
0096
FF4C
0053
008C
FF7A
FF71
FFE1
0097
0007
0007
FF7C
FF49
0069
FF6A
0029
0091
FF98
0037
FF69
001E
FF86
004F
FFB6
FFF3
001E
FF89
0053
FFB2
0037
FF81
0040
FF78
FFE3
FFA3
0055
FFA6
0088
0087
FF94
0029
FF67
FFD1
004F
0035
0028
FFB2
FFD3
FF6E
004B
FFFD
0046
FFA2
FFBB
FFC1
FF55
FFC2
006A
0088
FFFF
FFEC
FF53
0083
FF53
009B
FFF9
FFC6
0093
FF55
0019
000C
FF98
FFE7
0035
0048
FF48
0096
FF86
FF9E
FFAA
FF59
FF77
00A7
FFB9
FF72
FF70
004C
007B
FFA2
FF54
FF9B
FF5C
FF6F
FFE2
FF9D
0004
FFA1
009A
008B
0014
FFC7
FFD0
FFDF
004D
FFEA
007C
009B
FFBF
0010
FF6C
FF90
FFDB
FF95
0087
FF83
FFEE
0022
0044
FFD2
0082
001D
FFF3
FF68
FFF1
0070
0027
0078
FFFF
FF79
FF55
FFBB
0049
0067
FFB7
FFFD
FFE4
FFE2
FFA0
FF7D
FF93
FF61
FF9C
FF59
002F
FFC1
00A9
FF98
FFCC
FFD1
FF56
007C
FF5A
009B
0091
000C
000D
0038
FFD9
0038
FF5D
FF62
FFF4
0016
008B
FF75
0077
FF9A
FFDA
FFC0
FFE1
FF86
0004
006B
FFED
FFFC
0081
004A
FFFB
FFAA
008A
001B
FFA0
FFB0
0070
FF5F
00AC
FF7F
006C
FFDC
0001
008B
FFDF
000F
FF64
FF51
FFA8
0045
FF79
FF78
FFE5
0037
0052
FF91
FF6B
00A1
FFAD
007F
0080
0067
FF90
0074
0061
0026
FFCB
FFAD
FF7E
0004
001E
FFD1
FFFA
FFCF
0036
008C
FF88
FFD8
FF84
002D
0051
0098
FFBB
00A2
FF66
0027
FF63
0096
0007
003F
0076
FF85
FF61
008A
FFC1
FF7C
FFF6
0026
FF60
FFAC
FF5D
FFE3
008C
00AB
0030
FF8A
0093
0006
FF86
0099
0059
0053
004E
FF97
FF9E
0044
FF9D
FFEC
0066
0066
FFF5
000D
001B
FFDC
FF43
004F
0062
001B
004E
FFBF
0015
00B7
FF98
004D
0046
FF7A
0096
001B
FFCE
005D
FFAA
0047
FF5D
0079
FFF1
0030
FFA2
0043
0062
FF97
FFD1
FF94
0037
00A3
011C
010D
0084
FFC9
0005
009A
FFC8
000C
006F
FFD3
0031
FFA9
FF7A
0069
FF76
FFAD
0080
FFCB
00A7
00AE
FFAC
FF60
004B
FF8F
FF15
FFED
FEFF
0124
0023
0020
002E
00CA
0068
0095
0003
FFC9
FFA4
FFFD
0013
0030
FFB0
00A3
FF8C
00A4
FF55
FFF9
FFC8
FFEE
0018
FFED
FFE2
FFF4
FFE5
001D
FF48
00CC
00BF
0075
009E
FFE5
FFA5
FFBD
FF98
0044
003B
00A1
0053
FF62
0089
0084
FFED
0022
00AD
000D
0090
FF6E
FF8E
FFEE
001F
FFDC
0015
FF42
FEC8
00F7
00B1
001F
0086
FFC3
FFCF
FF6E
FF29
00A7
003B
FFDC
FFB6
004E
FFA9
FF94
0009
FFB5
002D
FF7B
0039
FFB6
FF51
FF7C
0099
FFEE
FF0C
FFCE
FF8F
0131
005F
00D3
FFF2
FF48
000E
FF7F
FF20
FF7B
004D
0035
FFD3
009E
FF58
FFBE
0098
FFBE
FFAA
000F
0073
FF6F
00A1
0069
FF92
FFAE
FF43
FF49
FFCD
012F
000B
006D
0085
FF3D
FF3C
FECD
FFB2
FFE5
FF9A
006F
006D
FFFD
FFB8
0032
FFB8
FFA4
0058
FF59
FF71
FF4F
FF86
FF6A
00AE
FF8E
FF5F
FF7C
0073
00DE
00A5
0155
00AF
FF6A
FF3A
FF78
FF64
003E
FFBA
0018
FF6B
FF94
FFE2
009E
FFD5
003C
FFAD
FF7F
FF6C
FFC1
FF86
FF93
005D
FF29
FFEC
FFAE
FFD8
00EB
0094
008D
012E
0023
FF36
FF13
0032
FFC9
0014
FFCC
FF79
0021
0008
FF9A
FFF0
006D
0022
FF72
0011
004B
0065
0030
FF88
0026
001C
FF31
FFBC
009E
0112
0074
00F3
0038
0010
0038
004B
FF52
002D
FFE3
0082
FFA9
00A9
002B
006B
FF74
FF92
005E
FF5A
0073
FF57
0036
FFD6
0003
001B
FF9E
FF52
003A
00F4
00DF
0131
FFA4
FF87
FF84
FEFA
FFC4
00AB
008A
FFC5
0023
0079
FFEC
FF58
FF6A
0006
00A8
0045
FF6A
FF92
0064
007B
FFF9
0007
FF2A
0044
00F3
0038
00D8
0029
FE93
FECD
FEC5
FF00
FFE7
0008
FFF6
FFAB
FF5F
0025
FFDE
FFBA
0085
0058
0083
0001
FF82
0049
FF97
FFEE
FF37
0045
FF4D
0063
0110
007E
00E4
00B6
FFA4
FF1B
FF97
FF29
00A2
FFFE
FFF2
0068
006F
0014
FF91
FFF9
00AA
0059
0072
FF5C
FFF7
0033
0077
FF64
0049
FFE3
FF66
FF92
003B
0096
FFEF
0012
FFA6
FEB6
FED3
FF23
0008
005D
FFF0
0063
0030
FF79
FF86
FFED
FFDF
0058
0023
FFDC
FF8E
FFA0
0018
FFE3
0090
0017
00CA
0107
00BF
0111
01C0
00DE
FFC6
FF11
FFCD
FF10
00A6
004F
0067
0048
0023
FFEF
0081
00A2
0003
00A0
0020
0012
FFF4
FF9D
FF4D
FFA6
008D
0060
007A
0137
00E3
0102
008F
0079
0003
FFBF
FFFC
FF25
001B
FFAB
FFA1
FF56
FF7F
FFBF
FF7B
00AE
FFBF
FF7A
FF9A
001D
FF6A
0084
00A3
FFAC
0078
FFE4
00BC
006A
00C6
00AE
014D
00F7
FF32
FFE5
FFBB
0022
FF7A
0064
0043
FF77
0046
FFE9
00A0
FF83
0033
FFD6
00A5
FFC6
00A5
0090
FFB1
0071
013D
0035
0070
0092
00D0
0066
00B4
00C9
FF90
FF2E
0027
FFEA
FF6C
0036
0036
00A6
FF52
FFA8
009C
0097
0051
0063
FF6F
0007
FFA2
FF91
0072
FF81
FFF8
009C
FF90
00AC
00B1
0016
FF8A
FFC3
FFE7
FFC0
FFB3
00A9
FF85
0056
FF4F
001F
0097
FFB4
FF96
0034
004F
0041
FFC1
FFAC
00A4
0097
FFF0
007C
FFF1
FFE8
FF86
FFEA
000F
FF5A
FFEC
0063
0044
0031
008E
FF57
0015
0067
000F
FFC7
FF7F
008C
FFF8
0087
001C
0043
006A
003A
FFDE
0006
006D
FFD9
FFD9
FF74
0099
FF72
0037
FFE4
FFE0
0041
FF66
0023
0063
0076
FF8F
0090
0039
0087
FFFE
0011
0099
0092
FFF0
FFB4
FFE0
FFDA
FFB7
FFB0
0084
FF6C
0044
FF8E
FFC8
FF64
FFB0
0062
008C
FFA0
FFF6
FFF5
0086
005C
0005
0043
007D
FF4F
FFDC
0090
0059
000D
000C
FFCC
000C
003B
FFE6
004E
0084
FF89
FFF1
FFE0
0044
FFA9
0032
0088
FFE5
0094
00B0
FF74
FFA7
00A0
00A2
FF77
FF59
FF8C
00B1
FF94
0003
007D
FF58
0022
FFB6
0080
FFB7
003F
003C
FF9F
FF59
FFE3
FFBA
006D
006F
FFF5
002A
002C
0075
FFE8
FFB9
FFAC
0011
FFEE
FFE9
FF71
004E
FF9C
FF96
FFE3
FF9C
001B
FFD5
FFF0
0010
FF98
FF88
008A
FFEF
FFE5
FF57
0002
0015
001A
0048
FF8E
FFAD
006D
009C
FF7F
FFFF
FF98
FF67
FFC1
FF87
004C
000E
FF7F
FF53
0071
FF8E
0027
FFC7
0025
FFC2
FF6D
FF9D
FF98
FFE4
0037
FFB4
FF51
0006
0025
00A0
001A
FFF8
0017
0098
0073
FFC2
FFA6
FFAB
FFFE
0054
0008
FF66
0051
006A
FFBA
0033
FFE5
0088
007A
000A
0043
0087
FFFA
FFBE
0061
FF9A
FFDD
007F
004C
FFE3
FFA1
FFD0
FFB5
FF8C
005B
FFAD
FFE9
FFD8
00AD
FFDB
FF6D
FF6C
0026
0020
FFE9
FFE7
FF63
0003
0001
FF84
FF76
FF79
FF6B
002B
FF91
FFAA
FF8E
00A7
007C
FFA2
FFC4
FFA1
FFFB
FF5A
003D
000A
008F
FF88
0069
0067
FF7D
FFDD
FF87
FFA6
FFAB
0024
FFF2
00AE
FF8E
FFD4
FEC5
FF88
FEF3
FE93
FF91
FEC8
FF49
001E
FFF5
FFFD
0052
FF6D
003C
0089
FF63
FF83
004D
FFE9
FFD9
FF86
0005
FF78
FFF7
0070
FFB6
000B
00B5
FF6C
FFA0
FF0C
FF84
FE6B
FE8B
FEA5
FEEB
0078
FFCD
0034
004A
001E
FFCF
001D
FFC4
FF71
00B0
FF7D
FF6B
0085
FFBF
0039
FFC1
FFEC
FFBB
FFD6
FFEA
FF77
FF2D
FFC1
FE86
FF0F
FF2E
FFA0
FE6E
001A
007E
FFA5
008B
FF56
0051
009D
0036
FFEB
FF61
009C
FFF6
FF5B
0044
FFF5
FF7A
FFAC
FF79
002A
003D
FF28
FF98
FFA9
FF51
FE64
FF58
FEF2
FF2B
0038
FFCC
0098
FF81
003A
FF52
009C
FF79
FF72
FFC3
FFD0
FF9D
0023
FFF1
FF5B
FFBF
0131
0100
0112
010A
FFBB
FF72
FFB0
0073
0093
FFE2
FF34
FF64
FFC1
001D
FF6C
009C
FFD4
0093
0061
0059
0024
002F
0033
0032
0012
00AC
0055
0064
0145
0057
002B
00BD
0007
0073
FFE5
001A
FFED
FF41
000C
005B
FF88
0022
0021
FF8B
FF81
00A9
FFDB
FF9D
FF8E
003C
002A
0030
FF72
008C
FFDA
FFBC
00B6
009C
013D
015B
FFB7
007B
0064
0094
FF8A
FFFE
FF91
0051
FF59
0018
FFC8
FFC4
0038
007E
0026
007B
FFB1
0005
FFF4
FF52
001D
003C
0021
005A
0049
FF98
FFAD
005A
0094
004B
00D2
00FA
FFD1
005C
0041
FFD2
0057
0033
0033
0017
FF54
0046
FFD1
009F
0074
0020
FFAB
FF96
FFBE
FFFC
FFB5
0002
FFC2
00E1
FFAC
00CD
0172
00ED
0134
00C7
0042
FFDA
FFD0
002A
0000
001B
FFB4
FFD1
FF6D
FF66
FFA4
FF6C
FF71
006F
FF59
0037
FFAF
0085
FFF6
FFBC
0037
000C
0047
FFA8
0191
00C7
00AB
012D
FFE2
0089
FFFF
005C
FF74
0079
0054
FF96
FF83
FFC2
00A6
FFA8
FFEF
FF59
FFD8
0019
009E
0001
0070
0010
FF8F
FFF8
0053
00D2
0160
0080
0080
0074
00A8
0090
006B
FFE8
0006
FFF4
FFAA
0002
FF54
FF82
008B
005A
FFE1
0005
FFD5
0059
0068
005F
004C
FF97
0065
008B
005E
00F8
FFC4
FF81
FFDA
00A7
FFE1
006C
002A
FFAC
FFFC
0047
0006
0088
FFB6
FF6C
0097
FFD9
001C
0068
FFC2
004D
FF7D
FFB6
FF82
006D
003A
00EE
013B
00A6
0007
FFF0
FFC3
FFF7
0069
00F4
00E2
00C3
008A
FFF3
0038
0089
FFE2
00A6
FFE2
0022
004B
00A8
FFA6
005B
0007
FFB4
0066
0012
00D6
0060
0095
00C7
FFDE
FF99
009E
FFFF
0094
0027
0016
0022
FFDE
000F
000A
0001
FF7D
0001
FF8C
FF79
0096
0029
0038
FFD9
0093
002F
0064
FFD6
0011
FFDE
FFEC
FEFB
FF1E
FF20
FF19
FFE9
FF66
FF78
FFBC
FFA6
FF9F
0068
0018
FF54
FFE2
FFDF
FF78
0040
0045
004F
004C
FF4E
00A3
0070
0093
FF56
000D
FFE0
FFEC
FEDE
FFC5
0016
FFB0
FF88
00B0
FFF9
0034
0007
009C
FF6B
0000
0042
0067
001C
008F
0099
FF65
FFDB
FF57
FFC7
000B
0095
007B
FF79
FEE0
FF8F
FF7E
FF23
FFFA
0007
FF47
FFFB
FFE3
0066
0008
FF8D
009C
FFF4
0053
FFD2
FF52
FF75
FFFC
0047
FFC4
0045
0040
0045
FFFB
0093
FFFC
FFF0
FF0E
FF2C
FECE
FFA2
FF19
FF2C
FFD0
FF32
FFB5
FF9C
0071
FF92
FFF6
0005
0043
0031
006C
FF60
FFB7
FFB7
FF84
FFB6
FFBF
0008
003D
FFD2
004A
FFC5
FFB9
000C
FF5A
FF6F
FFE6
009A
0053
FF6C
0079
0053
002B
0075
FFE2
FF9F
0009
0014
0010
001C
009E
0090
0086
0071
009D
FF71
FFAB
FFFE
0081
0001
005D
FF81
FFA7
0051
FF8D
FFCC
FFAD
FFCD
0048
FFD6
0017
FF6F
006A
FFD4
0034
004A
FF98
0088
0025
FFE4
FF91
0099
005C
FF98
FFCB
006F
004A
005B
FFED
0045
FFD7
FF94
0036
00A7
FFBD
FFF6
003E
0010
007E
005E
FF68
00AE
005D
0080
0038
007F
FF75
FFCA
0087
FF98
FF6B
0068
0075
FF88
007F
0042
0004
0076
FFE4
FF92
FFB2
0002
000D
006D
0066
0022
0068
FF99
FF61
0082
FF6B
FFAE
0048
FFDC
0085
FFBB
FF57
FFBB
001C
FFD3
0010
0083
0093
FFAB
FFF3
0014
00A2
00B0
FFA7
0051
FFD8
FF52
FF54
FFF2
FFF4
FF5D
0043
FFB4
0018
FFB8
FF90
FFDE
FFA1
000B
FF90
FFFC
FF7F
0037
0058
FF72
FFED
FF62
001C
FFA7
0008
0001
0091
000C
001A
FFDB
0099
005D
FFB1
007A
FFE3
006F
006E
FF88
0041
FFB5
FFB1
FFB3
0046
FF9B
FF49
0046
FF89
FF6D
FF9F
FFD2
FFF5
FF57
009E
0049
FFBE
FFBB
FFE6
0026
FF7A
FF8B
007C
FFA5
FFD6
007B
002E
FFC1
0039
FF51
0050
FFF4
006A
009D
0093
008B
0001
FFC9
FFF2
003B
0083
FF97
0092
006A
00A9
0082
FFAD
FF71
FF74
FFB0
0024
0064
0087
0023
FF4C
FF8B
FF6E
FFC7
FFF9
FF5B
FFC1
FF85
002E
FFEF
FFF5
FFE0
00A0
FF93
0000
0050
000D
0092
FFCF
FFEE
FF68
0020
FFB3
FF81
000D
0004
FF62
003F
0026
FF8D
FFEE
0048
0006
FFD6
FFBC
001F
0092
0038
FF65
FFF2
0084
FF6B
00A2
0096
FF64
0095
FFC9
0075
FFE4
FFE3
0029
005E
FF5B
001B
FF93
FFC2
FFC3
FFF1
FFBC
FF70
FF80
FF54
FFF1
009A
FF75
0097
004E
002C
002E
0073
FFA6
0035
007D
0052
010D
FFFC
00D6
00A5
FFE1
FFD6
0038
009B
FFF8
006C
FFD8
FF6C
FF5E
FF5F
FFD0
FFC1
004C
0052
FF60
FF98
FFAA
0008
FF7B
FF7B
00D4
009D
FFC4
0010
0063
00FE
0097
0010
0061
FFEA
FFBC
FFE0
FFFA
FFC7
FFA3
FFD6
FF50
0059
FF85
FF57
0033
0059
0069
FFF9
FF94
004C
0045
FFA0
00C9
FFAC
00DD
00B4
00D7
0130
00E4
0028
FFF5
FF7C
FFE4
0062
FFD3
FFBF
001A
0083
FF5A
FFD3
FF83
003E
FF6D
0038
FFAF
FF8F
0098
FF4E
FFE5
FF51
0030
0037
FFF5
FFB5
0065
00D2
00F6
009D
002D
FFA5
FFC3
FF97
FFA0
FF9B
0003
000E
0098
FF8E
0030
0069
0011
FFA5
FFA4
FF5D
FFB5
0052
FF56
FF99
FFB9
FFD5
FF5F
FFB8
FF1C
FEC9
FF1F
FF5C
00DB
FFA5
003D
FFFF
0002
FF4F
FFBD
006F
0011
FFE8
FFAD
FFB3
FFD2
0070
009F
FFE6
FFD3
0072
FFDD
000C
FF11
FFC9
FF7F
FFDF
FFA7
FEDA
FF8D
FFB0
0004
FFC9
FF8A
002C
FFC6
000C
FF8C
007E
FFA7
FF9D
FFF5
FFF7
FF9D
FFAD
FF85
004B
005E
FFEE
0045
0052
FEF5
0016
FFE0
FF0C
FED1
FEBF
FEC4
FF99
002E
009C
0096
0062
0040
FF4F
FFB8
002C
FF4C
FF58
0077
003D
FFA8
0039
0067
FFB7
FF57
0094
FFC5
FF74
FFD9
003A
FF79
FF8E
FEA5
FFAB
FE93
FF17
00CC
FFBB
00D9
00D3
0086
FF90
002F
0055
00A5
FF8A
0056
FFC0
FF8B
FFDD
0062
FFEE
0007
00AA
FFD3
0026
FFAF
FFB4
0026
0079
FF0C
FF62
FE6E
FE9A
0039
FF8C
FFDD
003C
FF4E
FFA6
FFFD
0017
0095
002B
FFDC
0092
005F
FF8F
FF79
003A
0010
0062
004D
0026
0088
FFEA
FF51
004C
FEA6
FF62
FF9D
FF43
0059
0027
0003
FFFC
002D
0055
003C
FF91
FFFA
0061
FFF0
0002
005B
0032
FFD9
0085
FF87
00A8
FF79
FF4C
0066
FF84
0032
0045
FF7B
FFAE
FEB3
FF42
FFB0
0017
00B1
0001
001F
FFFE
002C
00A4
FF5A
0015
007D
FFF3
FF65
000F
FFC2
FF7E
007B
0004
0097
0062
00E7
FFEE
0085
0036
FFD2
FECC
FEF3
FF45
FF9F
FF8A
0012
FF61
FF5C
FFCF
004D
0012
FFDE
0015
FFC9
0096
FF60
0037
0084
006B
FF88
FFB1
004D
FF67
0111
00F1
00F4
0013
FF8D
FF81
FFB8
FE9E
FF4A
FFC8
FF77
0006
008D
FFD6
007A
FF4C
FF87
FF56
FFBB
008B
FF68
0024
FFE6
0096
FF78
FF97
FF57
FFE6
0054
0128
00C5
00CB
FF4F
FEB5
FF29
FFF3
0067
007D
0067
FF64
FF9B
FF4D
FFB3
FF70
FFED
003C
007A
0052
0091
FF62
FF4F
0032
FFAE
FFA7
FFC3
FFAD
00A4
0087
009E
00DE
FFBE
FF88
FF68
FFA9
0086
008E
006D
FFD9
0019
0012
FFF7
000A
FFF8
0017
0044
FF71
0052
FF77
FF5E
00A2
0099
FF5B
FFEA
FF8A
009A
0114
013B
00CD
FFAB
0008
FFA5
0073
00B9
0049
FFF8
FFEC
FF52
0069
FFEA
FFBE
FFEF
006C
FF78
0079
0085
009A
FFD3
FF99
FFCB
FFBD
FF8A
0021
0097
0120
FFF9
00CD
0042
003D
0069
0034
00D1
FFFC
0034
FF8B
FF4A
FF9E
FF6B
FFA2
FF8A
FF5A
008E
FF46
0051
FF80
008B
0083
0031
0035
FF4B
00A8
0123
0126
00D6
0064
006D
FF9E
FFF7
FF54
00CB
FFB4
FFD6
004D
0058
0025
FF9C
FF4A
0057
00A7
0065
FFEF
008B
FFDB
0006
FFF0
FFE9
0059
0002
FFB8
FFA4
FF55
001A
FF9A
FF7C
0032
003F
0058
FFFA
0086
0095
006A
002D
FFB5
00A9
FFAC
FF8D
FFE2
FF5B
00A9
0019
000C
0030
FFF8
FF51
0024
004A
FFDC
0054
FF9B
FF99
FF7F
FFCA
0076
006E
FFD5
001C
0046
FFA6
FF81
00A0
0024
00A5
FFBF
0047
FF99
FFA8
0002
FFBC
FF86
FFAA
FF59
0048
FFF6
FF67
FF88
FF66
0022
FF6A
0053
FF51
FFA0
0088
0048
FF65
0068
FFF9
0075
001B
003D
00A9
FF97
0026
FFED
FF57
FF4F
FF75
002D
000D
000E
FF56
FFF2
008F
FFD6
0022
005C
0062
FFFE
0078
FFD3
0081
FFA1
FFAC
FF5F
0065
FFE0
FF97
FF96
008D
0079
000F
0028
FFF5
FFD5
008C
FF77
FFDC
FFC0
FFF8
FFEC
FFFE
FF78
FFFF
FF9C
FF89
FF64
0058
FFE0
0028
004A
0037
FFF1
FFCF
FFCE
0031
FFF9
0077
0081
FF88
FF7B
0029
FFB6
FF52
0088
FF98
0096
004B
005D
FF96
FF9E
0006
FF89
FFB6
FFC0
FF83
FF95
0064
FF87
FF59
002A
00A3
FFC4
FF76
0019
0092
0061
0028
FFBD
000E
FF6D
0040
0050
00A5
FFAC
FF50
000F
0048
0064
FF8D
FFA7
0004
FFC3
007D
FFF3
0068
0019
005F
FFC4
0076
FFB0
0013
FF97
FFF3
FFBB
FFA8
00A4
FF86
0065
00AA
FF52
0046
FFA7
FF60
FFD9
0098
FF51
001F
FFFE
0082
FF6C
0038
003F
003C
009D
0071
FF60
FFF2
FFDB
FFBD
FFED
FFD3
FFE3
00AB
FF6F
0093
FFF8
0029
0071
FFCE
FFE4
FFE2
FFD7
0099
0074
FF72
FF74
FFE7
FF75
0028
FF7D
0007
FF4B
FFC2
003D
FFF9
00A5
0085
FFCE
FF5F
0077
008E
0072
FF7B
00AD
FFA5
004C
008B
FF9F
008F
FFBB
00A8
FFAE
009C
FF63
0049
000B
FFF5
FF9F
0048
FF94
0010
FFA6
009E
FF57
FF98
FFA2
FFDD
FFA2
FFF7
0082
0048
0019
FF6D
0044
FF8B
0062
FFA6
FFE3
FFCC
007F
FF73
0012
FF7A
0040
00FF
0056
0067
0102
007D
0073
0095
00BB
FF6E
0070
FFE7
FF64
0061
FFD2
FF74
002E
0084
0088
00A0
0083
FF4A
FFD0
006F
FFD1
001F
0020
FFC8
008A
0070
0065
011C
006D
0006
007E
00E8
00DB
0068
004A
FFAB
0081
008C
FF90
FF7B
00AA
007E
0087
0088
000B
0034
000B
FF5C
0055
FFF9
0031
FFFB
FFFB
FFFB
001F
FFF8
0000
011D
FFFD
0025
0094
0024
FF86
0064
0063
FFA1
FFB8
0099
0071
0042
FF6A
FFDD
0012
FF8D
FFEC
0023
FFC3
005D
006F
FFBB
0072
FFDD
00E5
FFEE
FFD8
00AA
0068
0108
0046
FFAE
FFFF
FFED
FFC4
0048
005B
007B
00A4
FFAB
004B
FFDD
003B
FFF5
00AE
004C
00A1
FECF
FEEC
FEC8
FE4B
FF7B
FFA7
FF26
FFDC
00D7
00E2
017B
0168
FF89
FFD1
FFE5
FFCD
0067
0008
0017
007C
006D
FF7C
0045
FFE6
FFB5
FF5E
FFFA
FFC9
FE00
FEA2
FEBC
FE01
FF32
004F
FF27
006C
00FF
0095
007D
0025
FFA2
FF7E
0027
FF89
0009
0020
FFB2
FF57
FF57
FF55
0051
FFC0
0066
FFE7
FFEA
0009
FEA6
FE08
FDD8
FE6F
FF97
FFC1
0005
FFD0
0103
00E5
012D
011E
0005
003B
0083
FFE2
FFDF
005D
0020
FF69
0087
FF57
0054
0059
009B
FF62
0023
FFE1
FF80
FF31
FFD4
FFB4
FEAF
FF61
FF8B
FF94
008B
FFDA
009B
007E
FFBA
FF83
FFEA
FFDB
0018
001E
0056
FFFE
FF71
007B
FFBB
00A5
FF7C
009C
FF6F
FFA2
FF1F
0004
003B
FFA8
FFD2
FF57
FF67
FFB8
FFAF
FFC8
0086
008B
00A6
008C
FF77
0072
FFE0
00A9
FFF7
0012
000A
FFBE
FF69
008C
006C
FF7F
0062
002E
FFA2
FF68
003D
0008
FF4C
FF60
FEAB
FF33
FF8A
FF93
0034
008A
FFDC
FF9B
0035
0083
0057
0083
000C
0056
FF82
FFC7
FFD8
0001
0098
0084
FF83
FF8A
FF8E
FF73
FFE9
004D
FFE1
FF74
FFB1
FF3F
FF93
0002
0013
004A
FF9B
FFD1
FFCE
00A4
FFEF
0057
0053
FFAD
0018
008B
FFF4
009B
FF9B
FF69
008B
007A
00F5
0084
00E0
00B9
004B
FFE9
FFA8
006B
FEE9
FF0D
FEEC
FF18
FFF4
FF5E
0089
FFE9
001C
FF83
FF4E
FF9F
004A
FF72
008E
FF9B
FF97
FF8A
FF57
005F
00C7
006A
FFD7
FFFD
FFCC
0075
FF74
0025
FEEC
FEB8
FEEF
FE69
0068
FFA6
0052
FF67
009B
FF8F
0087
006A
00A3
FFF4
004B
FFD1
FF8D
FFE5
FF85
00A6
FFB5
0067
0073
0057
000A
FF4C
FFE8
FF8A
FFA0
FF5C
FFA5
FE5C
FFB3
FF97
FF53
FFA0
003D
FFA0
FFFC
0085
0045
FFD6
FFD0
FFF0
FF8B
0032
FFCF
007B
00AD
0077
0026
FFE9
008B
0022
FFC8
FFB9
FF82
0059
FF97
0003
FFF0
001C
0085
007C
FFEF
FF55
FFE8
0020
0014
0035
FF84
0036
FF8B
0059
FFC6
0046
FFAF
0034
0096
FFF1
008F
0053
0047
FFF1
FFF0
001B
FFEE
003F
FFE6
FF93
FF98
FF51
FFB9
0057
0069
FF95
00A3
FFFF
0092
0044
004B
FF69
FF9D
FF52
00A1
0019
00B7
0018
0099
FFA1
FFB7
FFED
FFD9
FFC6
0057
FF6B
FFC8
0076
FF69
0098
00AF
FF6E
FFB6
FFCD
0063
0024
0032
0058
FF79
0074
0048
0014
00D7
0099
FFE9
003A
0023
FF89
00C5
FF9F
0042
FFFB
FF50
008D
0075
0005
FF9D
FF78
FFCF
FFA5
0001
00A4
0018
0087
0033
FFF6
007D
FFF3
0083
FFB6
FF76
007B
0021
0089
009A
FF60
FFFD
FFD4
002B
0064
FFAD
0013
0046
FF7D
006A
0021
009A
FFC2
FF78
0000
FF6D
00A0
FF5C
0059
0008
FFD0
FF61
0029
001B
FFB2
008F
FFB9
FFE7
000A
FF72
0095
FFD5
FF65
FFD9
0023
0000
0043
FF5F
FFB7
0072
FF68
0080
FF71
0078
FFCF
0028
FF87
FF68
FF97
FF77
FFC0
0002
0020
0067
003A
001F
FFDA
FFF5
FFDE
0077
FF99
FF4C
0033
FF92
0088
007D
FF66
FF71
FFFA
0026
FFB0
004C
0021
FFBD
FF54
0059
FF9D
0071
FFE1
001E
0083
007E
FFD1
FF93
0063
FFE7
FF94
008C
FF91
FF54
FF50
0028
0035
FFBB
FFBC
FFC3
0041
FF60
0099
FF99
00AE
FF89
005E
FF9A
FF71
0083
007B
FFD8
0043
0013
007D
FFBC
0005
FFF9
FFCA
0088
FF88
FF83
0017
0039
FF95
FFD3
009F
FFA4
003B
0055
FFF0
009C
0057
FFEF
0017
0043
0020
0087
FFCE
FFB7
FF9A
FF5A
FF5F
0081
003C
0036
0026
007C
FFF6
0080
FFCF
0095
0048
FFAC
0014
000C
FF7F
0020
FFBE
FF62
00A3
0033
0084
003D
FFCF
0004
003C
00A2
FFA6
0086
0095
003D
0097
FFDD
009E
0044
FF5F
0091
FFFA
FFF4
0019
FF82
FFF5
0071
FF53
FFAD
FF53
FFE1
004E
0069
009D
0025
FFA8
0095
0060
001B
0041
0097
004D
FFCF
004D
FF5D
FFD6
FFE1
FF8D
FF56
FF7F
0037
0069
00AC
FFCA
0024
009E
FF89
004B
005C
FF6C
0081
006B
FF5E
FF71
FF61
FFC4
0004
000E
FFAC
0093
FFD0
FF5C
FFBB
0009
FFE3
FFB2
FF7A
006C
00AE
FFC3
FFD6
0026
004A
FFDF
008F
0014
FFEE
0032
00A4
0063
FF5F
FFC2
FFF6
FFBF
0048
0074
0051
00AE
FFB0
008B
005D
FFD0
0050
FF71
0065
000C
FFBA
0037
002D
FF99
FF57
FFE6
0017
0085
0097
000D
005C
FFE9
0056
FF98
FFD3
0033
FF1C
0015
003F
FFA2
00A3
0135
011C
006C
FFDD
0059
0035
FFA3
FFBA
008E
0047
00AC
0060
009C
FF9B
0060
FF57
003B
FFF6
FFCB
007E
007E
FF59
0028
FF97
FFAD
003B
FF8A
0156
0048
00F2
00F7
FFC5
FFDB
0093
0079
FFC5
0009
FF68
FF95
FFFB
FF6C
0078
004F
0099
0042
009C
0012
0027
00A5
0032
FF5B
0016
0058
0030
FFE8
00F4
0167
0029
00F4
FFCF
004D
0045
FFA2
FF9A
002A
FF7B
FFAA
0077
FFC5
FFFC
009C
FF9D
FFD8
0023
005A
008E
0092
0064
FFA0
FF1D
FF9D
FF49
0010
00F2
0016
0130
005F
0003
0056
0002
0005
FF65
FFDD
005D
0092
FFE1
FFE5
0048
0099
FFAD
FFED
0067
0025
FF74
0028
FF91
0005
FF7E
FFFC
FF66
FF25
FFD3
00B8
FFBC
0016
FF1F
FFF3
FF89
FF5C
FFCE
007B
0010
0050
008B
008D
FFC6
00A0
FF58
FFD2
008B
FFAE
FFB0
FFB9
0025
FFE8
FFC7
0005
FFB5
FF0C
00CA
FFDF
FFB8
FFA0
FFA6
FF08
FF12
FF49
FFB4
0024
0070
005B
FFA8
FFA7
00A6
FF54
0084
FF95
009D
FFC9
FFE8
004A
001C
FFC2
FF85
FFC7
FED4
FEC7
0022
FFB4
006A
FFCD
FF75
FF23
FFA4
FF0D
FF52
FF62
00A0
FF81
0047
FF66
FF75
0005
FFF2
00A1
009A
0063
0020
FFEF
FFCD
009B
0005
FFFF
FF81
FF41
005B
FF7D
FFA5
FF32
0040
FF20
003F
FF48
0089
0053
FF87
0016
FFBB
FF8E
007F
FFDB
FFDD
FF8A
FFD4
0087
FFD6
009D
009E
FF84
FF6C
0061
FFBC
FF30
FF70
FFE0
0028
FF41
FF3B
005D
001E
FFE8
005B
FFE7
0058
FFD0
FFA6
004E
FFE7
00AA
FFCC
0094
0099
FFA4
006C
FFE6
0095
FFEE
0039
FFD8
FF82
FF78
FFA5
0018
FFE3
FFFF
FF7B
FFC0
FF26
0036
00AE
FFE0
FF53
FF8E
0036
0023
0067
FFAA
0060
0043
FFC3
0010
FF86
FFF2
0085
FFE6
005B
FFFE
FF70
FFFF
FFBD
FF99
FF36
FFA3
FF2D
FF38
FFAE
FF80
0094
FFD7
005D
000A
004C
FFA7
009C
000B
0075
FFD1
FF72
003B
FF52
FFF5
FF94
002B
0111
005E
00D9
006A
002F
00C9
00BD
0098
FF30
FF88
FF16
FF69
FFFC
0078
008C
FFDF
FF55
0080
FF8E
002A
FF58
FFDB
00AC
FF73
FFE7
FFBC
008E
0084
000A
FFD3
0097
002F
0072
FF8B
FFB0
0073
FF15
FFF5
FED8
FF14
00B2
FFEA
0047
FF90
0022
004F
FFC0
0077
0024
FFD6
0016
001A
FF8D
FFDA
FFC7
FFDD
00C3
0061
0106
0020
0013
0097
0043
0043
FEDC
FF54
FF24
002B
FFBE
0088
0040
FFC6
0011
0077
0085
FF8B
FFC8
FFC5
FF60
0024
007D
FFD6
0052
002C
00E5
0093
015C
0190
0185
0097
00DF
00AC
FFE0
0023
FF41
003F
0014
0043
00A9
FF69
0092
FF7C
FFD9
007C
0090
0003
0023
004A
0076
FF79
006C
FFF8
00FF
00F6
0112
01B0
0153
01E1
00CF
0192
0033
0007
FFEB
FFDE
007E
0072
FF7B
007C
FFE1
FFAA
0085
FFEA
006D
FFAC
FF4F
FFFC
FF73
0059
FFAF
FFEE
007E
00C6
0175
0092
0178
01D7
0184
01B0
FF3F
FF6D
0053
0013
002F
0037
FFE2
FF5C
0067
003E
FFF8
008B
FFC5
FFB5
0086
006A
0004
FF7D
FF9B
0039
00E6
0189
01AE
017B
0117
01A8
010D
00CD
FF24
FF9F
0057
FF68
FF95
00A6
FF57
0066
FFC3
FF5B
0095
FF7D
0013
FFB0
FF65
FF60
FF76
FF6A
005F
FFFA
FFC7
FFE3
0096
0091
004A
008A
FFBD
FFD9
0028
002C
FFF8
FFDC
00AA
0071
FFE7
004D
FFAC
FF6E
FFCC
FFDC
FF55
006B
FFCC
001D
FF6A
FF8E
0087
0027
009C
00B1
FFD3
FFB8
007D
00B1
002D
0067
0066
FFCA
0017
0075
0044
FF54
FFC6
FF86
FFA2
0090
FF5E
FF9F
FFBA
002B
000B
FF9C
FF88
FFA2
FFFF
FFB1
0099
FFF7
FF66
0052
FFC3
0036
FFB3
0017
0060
0096
FFAA
FFC4
FFF2
0099
008E
FF6C
FF7D
0000
FF76
FFC9
FF84
002F
009E
00B0
FFD6
0025
007F
FF7B
0043
FFDE
FF99
FFDC
FF6A
0044
FFA8
FFBE
FF7B
007F
FFFD
0016
0016
FFE2
FF94
0052
FF7B
FF75
004C
FF97
FFB9
FFF8
FFEE
004A
002C
0034
004C
FFB7
FFC2
FFE6
FFBA
00AD
006D
FF88
FF4F
FF5F
FFA4
FF76
0011
007D
0054
FF9E
FFDD
0005
006D
007A
0092
0003
003D
FF73
0008
FF9E
FFDF
002A
FFA2
FF59
FF4C
FF4E
FF4C
FF6E
FF99
FF93
00A2
FFAF
FF71
0004
0072
0039
FFAD
000C
0048
0043
0030
0080
0078
0013
FFDD
002D
0065
FF43
00A7
FF86
FFEC
007A
FF95
FFEA
FF77
FFD1
FF85
FFC5
FFCC
00A5
00A1
FF73
004A
FF59
FF55
FF6E
0096
0098
FF85
FF7D
FF9B
FFFE
0010
FF93
0051
FFB1
008C
002B
FFE3
005D
006B
FFAA
FFC5
0092
FF84
FF58
FFE9
0061
005F
0091
0005
FF6B
0017
0059
FF69
FF82
FF4D
001B
0083
002D
00A1
FF5A
0088
0064
FFBA
009E
FFB0
007E
007E
0057
000B
FF72
0002
FFBF
0060
0052
008E
FF50
0063
008E
005A
FF72
FF64
FF49
0020
0031
00A5
FFD4
FFBE
0021
0071
008E
0067
FFDD
0029
0079
FFF3
FF92
FF82
FF44
0047
FF77
FF9B
FFB1
000A
FFD5
0037
FF5A
FF74
FFF7
FFB9
FFB0
FF5B
0084
003F
FF71
FF5F
00A2
0038
FFD8
003D
0057
005E
FFF8
FFD5
FF3D
0087
000F
0078
017D
0177
0191
0161
018B
0084
0155
0063
FF9A
FF6F
00A2
FFB1
007F
FF4A
FF4D
FFEE
FF9B
003F
0013
FF5B
FF7D
FFD5
FF8B
0053
FFD3
FF5E
FFF2
0051
0064
0085
0167
0172
014D
00A3
008B
000D
0047
00AD
FF73
FF59
003C
006A
0076
0036
0097
FFFB
0088
00A0
006A
FFB8
FF8E
0000
FFDF
0074
FF64
008C
013C
0057
00A4
00B2
010A
0068
015E
FFE6
008A
FFED
FFA4
FF79
FF49
0003
FF6C
FFD0
0017
FFA3
FF86
005B
0093
FF71
FF7C
0093
FF4A
0098
FF3C
0169
00A0
017F
00A0
0111
0047
007E
013A
0003
0090
FFDE
0077
FFE7
009F
0099
FFB7
0082
0075
FF90
0029
FF5D
0067
FF83
FF60
FF35
FF73
FFD2
0001
FF30
FEA0
FF9A
FF54
FFD0
FFA3
FFEB
FFAF
0055
0004
007C
000C
FF99
0074
000F
FF90
0023
FFC2
0070
FFE6
004A
FF68
FFCE
00A2
FFCA
FEE5
FF0C
FF1B
FF76
FF99
FF9E
FF46
0057
FFD1
FF60
FFFD
0094
005E
0013
002C
008A
FFE4
FFC0
00A1
007B
FFBE
FFEB
FFDE
FF79
009C
FFD4
0081
FEE8
FF69
FEAF
FFB5
FF5E
FF74
FEA1
FEDD
FF49
FF97
0016
0005
001A
000D
FFA7
FF9D
FF73
0072
001F
FF8F
FF83
007C
004D
0032
FFCF
FFA1
00A2
005F
FF68
0023
0005
FF62
FE8A
FE34
FE11
FEEC
FFA0
0063
009D
FF59
FFF2
0063
005C
0051
FFC2
FFE9
001C
009E
FFBC
008E
FFA1
00A9
003B
FFEA
0022
FFAA
FF53
FF1C
FF1E
FF71
FF04
FECD
FE16
FF2A
0014
0090
0025
FF7D
FFEF
002E
FF51
FF4A
FF78
FF99
FFE3
FFEE
FF78
0036
001D
FFAE
FF4B
FF60
FFD3
FF7A
FF7F
FFD6
FFBC
FF47
FE6E
FECD
FF23
FEFB
0003
FFBD
FFBB
0073
FF57
00A4
0031
003F
FF54
0017
FFF3
FF6B
FFAB
0080
000C
FFDA
FF67
0046
0041
001F
FFAA
FF8B
FFC7
FF48
FF3E
FEC3
FE60
FE95
0059
FF74
FFAA
002E
FFB4
0060
FF73
0055
FF60
FF47
0087
0012
FFC5
FF9C
0022
FFF6
00A6
00A2
002D
FFDF
FFCE
0018
FF44
FF90
FEA9
FEA8
FED5
FF3C
0056
FFEB
FFB5
FF5B
000A
FFAA
001F
00A0
FF71
FF92
FFF1
009E
0059
0082
FFBB
00AA
FF6B
FF5A
0077
0092
FF43
FF47
FF29
FF46
FEDD
FFE6
FF7F
FFA1
0051
FFF7
0054
0011
FFB7
0011
0006
006F
009B
FFD9
0054
FF6E
005A
FFC7
FF56
FFC2
0024
FF70
0092
FF67
0068
0017
FF95
FFAA
FF96
FF64
FF7F
FF1C
FFE9
009D
FF86
FFD0
FFB1
0055
0058
FFAB
FF63
FF4C
FFDA
FFDA
00A3
FFEF
FFA8
0084
FFF4
001F
FF66
FFCD
01B8
0139
00DE
0146
00F0
000D
0060
0102
FF79
003E
001B
0030
FFC4
FFB6
0038
FF8F
FFE3
FF8C
FF44
00A0
FFE3
009F
FF7B
0014
FF8B
0059
0059
FF6B
01A7
00A7
013B
01C5
00E4
00FC
0027
FFD3
FF81
FFF1
0056
FF72
002A
FFB8
FFC1
0033
FFE9
0068
FF81
0060
FF5B
FF8C
002E
0076
FFA3
FFB7
0004
FF97
0183
017A
0096
0102
00C4
0027
008F
FFBD
001D
FF71
0061
FFBA
FFA7
006A
FF55
FFD2
FFCD
FFAF
008E
004E
FF61
0043
0006
0089
FFB8
0011
FFF7
FFF8
0103
00AE
016F
0100
0100
0009
009E
00FA
0028
006E
0066
FFBB
0018
FF7D
0004
FF98
0052
0002
FFD8
FFA1
00AA
FF62
FF58
FF92
009D
00A4
002E
007C
FF90
00A1
FF75
FF68
FF6A
0014
005A
FFD0
00A0
FFE2
FF7A
FFEC
0035
006D
FFEA
0018
FFA3
0025
009F
FF5B
0080
0006
FF9C
009A
FFEF
FFBD
FF85
FF9C
006A
0020
008C
FF98
FF6E
FF4B
FFFB
00AB
003F
FFAF
007D
005A
FF4F
0065
FFAF
FF80
FF99
FFF2
FFE1
FFB2
FF7F
005A
00A5
005E
FFAE
FF9C
FF8C
FF7C
0005
0023
0044
003A
FFAE
FFBC
003A
FFC2
FF92
FFCB
FFA5
FF67
0067
0079
FF90
FF5A
004A
FF94
FFD3
FF5F
FF96
005B
0061
FF91
FFBF
FF75
FF61
00A7
002C
0006
0056
006F
0068
FF4A
FF83
002F
FFCD
00A1
0030
009A
FF8D
007B
FFBC
00A3
FF7D
0003
0067
FFDA
FFE8
00A4
FFDD
001D
FF58
0071
002A
FFD6
FF4D
0011
FF46
FF48
001D
FF8C
FF8A
002C
FF56
FFB5
FF83
000F
0033
004B
FFA3
FF68
FF5F
FFE1
0094
FF94

// Layer 1: 16 inputs x 16 outputs
// Address range: 12544 - 12799
FFBE
FACB
FFF3
0056
0216
0336
024D
FB75
0040
002C
0239
FFB3
000C
00CF
046E
01A5
046F
F91C
008C
03E8
FC93
0395
034A
FA68
02F7
FB03
070C
052B
FA79
FAA1
032E
FC92
FB2D
FF41
00BD
FBB1
036E
03BE
02A0
02E7
FC4F
FD61
FC36
01D3
042A
00C9
0264
019E
00E5
0094
F94E
FC64
0239
FEA2
01B8
FEC1
0002
022D
0201
FC4F
02B3
02BD
0369
0658
0145
060F
FD71
FB6C
FEA2
FD26
02E4
02E9
FA87
FE2B
FBBC
005F
0413
0494
02DB
FE1D
FFF5
00AE
FD6E
0279
02AD
010D
0151
FBC3
FE5C
014C
01F8
FC70
0186
04F0
0056
0396
FE64
04F2
036F
050C
005E
FED0
FAFA
FE4F
01C4
043B
FE04
FD2E
FE4B
FFE4
FB8E
FE47
032A
FB4D
02D8
0444
FE09
021B
0188
0034
0242
FC79
0387
0603
FC58
FAC5
FB5D
F8A2
0394
F93F
FAED
018C
FC52
0161
0389
FB59
0414
016C
030E
FDB3
FE15
0321
043C
FD94
01B4
FD70
FE7A
00D6
FF3A
02DE
02FB
FFCF
FCC9
02B3
047C
FC27
0097
FE83
04CD
0388
FFC6
0288
FD8E
0400
FEEF
FEA4
FD74
FC30
043A
FFFC
FF6E
FEC6
FA85
0179
00F2
FAF5
FD3F
FE30
089D
02A5
0473
04B7
00E7
04C6
FE98
FDFF
FA19
FF6D
0243
FC19
FA9C
FFCD
FE1B
023C
064C
0398
021C
0101
FE95
FE56
0434
FD45
FC46
0495
FCCC
FE1A
F8B8
F9BB
FAD6
FBF0
0566
0471
FD42
04CD
FA7E
0196
FA7E
017E
FDF3
01E5
035C
FD30
FF0D
02D2
FF16
00E2
0064
01F0
FC9E
FE03
FE94
FFD9
FDF8
0497
02A7
FFE2
01BE
04C6
FC89
FE41
00A1
0352
FB1A
0336
FEB7
FDAD
FE9D
FDC5
01F8
03C1
FFED
03A6
031B
0115
00D0
FE71

// Layer 2: 16 inputs x 10 outputs
// Address range: 12800 - 12959
003E
F7C0
04CE
FEAA
0526
0290
FB7D
F9C4
FC41
00FC
FBA7
022E
FB41
FC58
F9D1
FAA6
0382
0E83
F7B2
FDE2
F8BF
FE85
F8B5
0669
0B69
FBAC
0505
F569
FDE8
F4AF
F9ED
FC18
FD49
FA75
FCEC
03BA
068A
FF7E
FA0E
F865
03C1
FFFB
FEFD
F4E8
F887
F937
039D
03C1
FB95
FC82
FBE3
FFD4
0229
0002
FDF9
F9C2
01C0
0076
FF1B
FA2B
FA2E
036B
FFE8
FEA9
FA1B
FF1A
FB81
F66E
FF06
FC32
03C4
050C
F9E1
F68F
041E
00E6
06BF
017B
0001
FBC1
0214
0213
FF6B
FE89
F896
FB52
FC86
FD81
01FF
0228
FDD8
0089
F9DB
0695
FD28
F970
FF18
0699
02CB
F6C4
00A5
F8E6
F5C1
061A
012B
FE27
FBB1
0267
0159
0345
FCA2
FE9C
FFFF
F66F
0268
FFF1
FF7A
002C
FDA8
FAC4
FE55
FA88
FDA8
042A
FF50
FD9A
FEF6
FDBB
FF51
FF1E
FF87
01F3
005B
FD05
FEFF
FEBF
FDB0
FB4B
FB60
FD06
FB9D
00A3
FA93
005F
F996
FA92
FCEB
F90B
004A
F966
00FA
02A8
FD00
F9B2
FF55
01F2
074A
022A
FE03
0204

