// Neural Network Biases (S.4.11 format)

// Layer 0: 16 biases
0000
0000
0000
0000
0000
0000
0000
0000
0000
0000
0000
0000
0000
0000
0000
0000

// Layer 1: 16 biases
0000
0000
0000
0000
0000
0000
0000
0000
0000
0000
0000
0000
0000
0000
0000
0000

// Layer 2: 10 biases
0000
0000
0000
0000
0000
0000
0000
0000
0000
0000

