// Neural Network Weights (S.4.11 format)

// Layer 0: 784 x 16
FFD3
00A0
0052
0023
FF86
FF86
FF63
0082
0024
004A
FF56
00A7
0076
FF9A
FF8F
FF90
FFBB
0009
FFE8
FFB6
0028
FF80
FFB6
FFD1
FFF0
0065
FF95
0005
0021
FF5F
0026
FF8B
FF66
009F
00A5
006D
FFBB
FF71
0041
FFEB
FF7A
FFFE
FF5B
0091
FFAA
003A
FFBD
0007
0011
FF90
00A7
0062
009C
008C
0023
0096
FF6E
FF94
FF5F
FFC2
FFD9
FFAF
0075
FFCD
FFB2
000F
FF81
006B
FF69
00AD
0061
FF95
FF51
0070
0049
0051
0060
FF69
FFCE
FF78
0081
002C
FFC4
FF65
FFBD
FFC2
0051
0031
0089
FFF6
FF79
004C
005D
0016
0060
FFFE
0008
FFE6
FF58
FF75
FF5A
0030
FFBE
0003
0091
FFA7
FFE0
005B
FFA0
FF6A
FFB5
FF88
0098
006D
002F
0084
006C
FF91
008B
000E
006D
008D
FFBF
FF76
FF9F
FFE6
0071
0080
FF51
0004
FFE3
FF9D
FF79
FFC6
009D
FFC1
0007
0048
FFD0
00A7
00A4
FFA8
FFFF
FFB9
FFB4
FF5C
0027
0001
FF61
FFB1
0091
FFA4
FF82
FFFC
00AC
FFA5
003D
005D
FFA3
0051
FFD1
002F
002F
000D
FF6F
0077
FFC0
FF91
FF5D
0020
003F
FF55
0004
FF9F
0033
FF8C
0044
FFD8
009B
FF7F
FFC8
FF77
0097
0086
FFAA
0039
0071
0014
000B
FFA4
FF70
008D
008E
002F
FFC7
FFCB
0050
008D
0089
0063
0032
FF6C
FF88
008D
0026
FF52
FF73
003A
FF50
FF88
0011
0044
0036
FF9E
004B
FFA3
FFC2
0057
0035
007C
0038
0018
FF70
FFD1
FFAD
FFA5
00A8
FFDA
008B
002F
0069
0001
001B
FFFD
FF94
004F
FFB2
FF57
0034
FF8D
009C
00A1
0093
FFD2
FF54
0098
FFE7
00A6
00A4
007D
FFB7
FFD7
007D
FFBF
FF8B
0014
009B
0046
0019
FF71
0029
00AE
FF80
0007
0086
0055
0046
0048
FFCE
FFB7
006E
006E
0082
0093
0004
0001
006A
0035
0048
0069
008A
FFC7
FFD4
FF70
001C
FF5B
FFF4
000F
FFB4
0020
FF59
FF5C
0072
FFCE
FF7C
0008
0060
FF9B
002C
FF6D
FF61
000B
000E
0031
0050
00A9
0006
FFC1
0069
FFAF
FFEA
FF6A
FF58
00A4
0077
0046
FFE0
FF8C
FF86
FFA7
0011
004C
0039
FFB2
00A1
0054
0013
0028
FFE3
FFA7
FFCD
005B
FF54
FF78
FF5F
FF5D
007E
0048
FFF7
FF71
FFFD
FFF7
FF8C
FFE9
FFDC
0029
0030
FF5F
FFD4
002D
0001
007E
0038
FF88
FF68
0033
FF58
001E
009C
001B
FFD8
0033
FFF1
0010
009D
FFD8
00A4
0090
FF94
FF67
FF72
FF55
FF70
0041
FF68
FFC0
007A
FF57
0070
FFB3
FF79
0046
002E
0086
0053
006C
FFB3
FF8E
0059
006D
00AE
FFE1
FFD3
0062
FFC8
0099
007F
FFE7
0059
005A
FF73
008F
0002
0074
FFC0
008C
FFD9
FF52
0090
FF6F
FFC0
00A0
00A0
001A
002F
FFEE
FFB7
FFC3
003D
005A
0067
0067
FF6F
FFFE
FF63
0012
FFEB
008A
FFCB
FF78
FF81
005D
002A
FF73
FF6C
0047
FF68
0072
0049
FF6B
FF6D
00AD
FFD3
FFD2
006F
009F
00AC
005A
FFD4
FF6C
0062
0015
FFE5
0090
FF76
FFFD
FF53
FFF5
FF63
FF79
FF78
0035
0057
001E
00A4
FFD4
FFB4
0083
FF9E
00A4
FF53
00A7
FF5E
008B
000A
00AF
FF69
0013
00A6
0008
002E
0045
FFF0
002D
001E
008E
FF5F
FFB2
00A0
008A
FFF0
002B
FFB1
FF91
FFF3
FFCC
001E
FF6A
00A8
00AC
0046
000D
FFBC
006F
0042
FF88
0092
0072
00A0
0050
0028
FFE3
0099
0082
FF5F
FF58
FFD4
006E
00AD
FF84
0021
FFD6
00A7
0079
0078
FFF5
FFE2
FFB0
FF63
0081
006F
00B1
00B0
0014
005F
009E
007C
FFA6
FFEE
FF7C
00A1
0026
FFA0
003D
002A
FFCE
FF77
003D
0007
0061
0007
007D
0012
0016
0086
FFDE
FF7E
FF59
005B
002B
0048
FF9A
FF7F
FF54
FFCB
0020
FFDA
FFEA
008F
FFCA
0005
0065
FFDB
002B
0081
009F
FF83
0097
FFFD
FFAA
FFF2
00AA
FFFD
FFC3
002F
FFA4
FF6A
FF7C
FF7C
FF85
FF80
0032
FF8F
FFC9
008D
FFF7
003B
FF8C
FF93
FF5D
FF8B
FFB1
FF8D
FF6E
FF79
FFF2
FF98
FFD0
0001
0044
FF5D
006A
002D
FF6C
0085
0095
FF64
FFB1
006D
0058
FF90
FF99
FFD2
FFFB
002A
FFD2
FFF3
0058
FF5C
FFA8
004C
008C
0004
000B
FF75
FFED
000C
FFA5
FFAE
FFD4
FF56
FFC1
FF9A
FFC3
FF79
008B
0021
0040
0067
FFFF
FF6D
000D
001F
0057
FFE8
FF7C
FFB3
FFCF
0034
0019
FFCD
00AD
0026
FFA3
FF73
FF85
FFA6
FF88
FF91
FFB4
FF8C
008D
FF6B
0009
FFE0
00AB
FF76
FFDC
00A7
0082
0070
FFAA
FF8B
003C
0098
0014
0019
FFB2
0060
FF91
FFC1
FFE6
0003
FFA5
FF77
0027
FFB5
001D
FF85
FFF9
000C
FF61
FFC6
FF7E
FF65
00AE
FFC1
006E
FFA9
0040
005C
0022
FFF6
FFE1
FFCA
0098
0075
00A5
FF7B
0052
009B
FF8F
FF66
0056
001A
0079
FF80
0069
FF96
FF89
FF89
0070
003B
0008
FFCE
0086
FFDA
0070
FFEA
FFD4
FFF3
FFBA
0058
0001
FFA1
008E
FFD7
000F
0090
002C
FF78
009C
002D
FFC5
FF80
0068
002B
000C
008C
0066
FF84
FFBD
FFA7
0057
FF5B
0019
005D
0086
FFC8
0072
FF76
007B
FF7C
FFDC
0069
FF84
FFA0
004F
004E
0032
0045
000F
FFA8
FFC9
FF8F
0091
001E
FFDD
FFF3
009F
FF85
001F
0002
0028
FF55
0084
0099
0017
0046
0096
004A
FF85
001B
0026
FFE5
0054
009A
0097
FFEF
FF77
00AC
0078
FF7B
0095
0083
0007
0020
FFDC
FF62
FFC6
006B
FF50
FFC5
FFDC
000D
0095
FFC9
FFCA
0054
FFEF
FF9E
FFEF
FF81
FF8D
FFFF
FFE3
0093
FFCF
001D
002F
FF53
003A
FF8E
00A4
FF83
FFE2
FF6D
00B0
0001
0022
FF66
0059
FF99
008D
FF97
FF92
FF5C
FFF6
0017
FF66
0062
FFEF
0009
FFEB
FFDD
0015
FF86
FF8F
0080
009E
FFD3
FFAF
0033
FFE0
FF58
FF86
004D
0038
FF58
FF9D
FFA1
003D
FF56
FF74
006A
FF8E
0036
FFA3
FF72
FFA5
004F
007E
0075
FFDC
003C
FF97
FFB7
008D
FF53
FF6D
FF98
FF58
FF8F
001D
FFE4
008B
0071
FFC8
FFAB
FFD5
0020
FFAE
002C
FFE0
0012
FFE9
FFB7
009F
005E
FF80
0083
FFFC
008C
006A
FFE5
FF57
FFAE
000F
002F
FFAA
FF80
0077
00AC
0009
FF8C
FFAF
FF55
0093
FF78
001B
FFB0
0013
0036
0075
FF98
FF53
FF7F
008E
0085
0023
0024
003B
FF8D
0093
FFE3
FFD7
0007
FF5F
FF8A
0054
FF6C
0025
FFA6
FFD9
FFB5
FFCD
004E
FFB8
0018
FFF8
003A
009B
0052
FF9B
FF5A
FFAC
0022
FF61
FFFF
0022
FFC5
0060
FF74
FF69
0051
FFFE
0043
FFE9
FFA6
0071
006A
0045
FFAF
0020
FFCF
FF6F
0094
FF7F
00A0
FFED
FF90
000F
0084
0052
006D
0038
0044
007C
FFA7
FFFC
FF9D
00AD
009E
FF5D
0049
0097
FF8F
0018
0093
FF5B
0046
FFB8
0097
00A7
009E
FFF7
0080
007A
FFC0
0075
FF5C
0022
FFA0
FF79
FF6A
0046
FFC7
0050
FF66
FFBE
000E
0067
FFC0
002D
0089
0029
FFA1
FF57
0083
FF56
0085
000A
009C
006A
00B1
FFCB
005F
FFDD
FFF9
002D
0085
00AC
005F
FFE3
FFE4
0054
FFA3
FF76
FFCC
FFB5
FFB8
FFA2
FF5E
FF55
00AD
FFE6
FFD7
0040
FF9C
00A0
0066
FF6E
FFE3
0086
009E
FFF4
0028
FF8A
00AE
FFA1
009D
0035
0026
0005
FFA0
FF8D
FF9D
FF91
0063
FFCB
FF63
00A6
0088
0098
00B0
FF8C
FFDB
005C
0046
FF85
0070
FF9E
FF9E
000D
0021
001C
FF6F
0086
FFAD
FF7D
008A
00A2
0080
006E
0037
0012
FF6D
FFE0
FFD3
FFAB
004F
FFFF
FF6B
FF9D
0041
FF6A
007D
FFFE
FFF9
0021
0073
FFCA
003F
0017
FFAD
0086
006A
0038
007C
0082
004A
0078
0046
0040
002A
005A
FF87
0087
0084
FF59
0074
FF7C
FFC6
0056
FF88
0071
0076
0003
FF51
FFB4
0029
00AB
002F
FFAB
0030
000E
0063
FF75
005D
000F
00A4
FFC8
002F
0099
FF73
009B
0043
FF67
FFB9
004A
FF67
001D
FFC9
002B
FF5F
0084
00A8
00A6
0059
FF7D
005C
FF57
FF56
FFC1
FFFC
0060
0041
FFED
FFB0
00B0
FFE6
FFEF
FF89
0069
0045
FF9D
FF6C
0040
0037
FFB0
00A0
FF84
FFE8
009D
FFE4
0031
FFDC
FFB0
00AC
FFE0
008C
FFA0
FF9A
FF5A
0036
FFD1
0081
FFF6
00A6
FF90
0083
0062
0060
007A
005D
002D
FF7D
FF5A
0095
0029
0069
FFF9
FF78
FF7B
0042
FFE7
FF96
FFFD
FF65
001D
FFAE
006A
FFBD
FFF0
FF53
FF68
FFDA
FFF9
0023
FFB6
0045
0080
0063
FF5D
FFF9
FF74
FFA4
00AD
FF81
0000
002A
0048
0015
FF52
FFC2
0006
FF6E
FFCB
FF5A
FF6B
FFDB
FF7E
0018
0043
006B
FF96
FF8A
FF74
0030
0049
FF5A
009B
FF61
000F
004A
0084
004C
006B
FFC7
0070
FF6B
008C
0011
0071
FFEF
0033
0009
0052
FF6C
FF64
FFA6
FF87
0084
FF9C
00A9
FFC6
FF8F
0067
0038
FFFF
0014
004E
FFA0
00B0
00A8
0035
FF95
0040
FF68
FF5A
FFAA
FFF3
0083
0051
0056
FFE6
FFC9
FFD2
00AD
FF5D
0082
001C
FFEA
0050
FFFB
0084
008E
FFE4
FFB1
0021
0092
FF99
002C
002F
0053
FF7D
004D
0091
FF8E
FFA3
00A7
FF8F
007E
FFFD
FFA6
0084
FFED
0005
FFCE
0021
FF89
FFD9
00A7
FFAA
0038
FFC2
0061
FF7D
00A7
FFF0
FFA2
FF69
FF8B
0007
FFC6
0075
FFE7
FFA7
002A
0049
FF8A
FF8A
FF5C
0054
003A
FFF7
007A
006C
001E
0083
FF98
FF76
FFAE
FF63
000B
009B
FF5D
FF7A
FFEF
009A
FFBF
0003
FF5D
FF83
00AD
00A5
FF50
00A0
0031
0083
FFF0
0006
FFFC
003B
FF80
FF59
FFBC
0049
FF96
003E
00A7
FF70
003D
FFEC
0083
FF8D
0044
0078
009E
0041
FFFF
002A
0083
0019
FF59
0099
0043
003F
FF9B
0038
FFDA
0036
FF74
0038
00B1
FF60
00A9
FFDF
0084
0064
0018
0055
0086
FFDE
FFC3
003B
006D
005D
006A
FFE9
0071
FF79
0010
FF51
FFC2
FFD1
FFDB
0045
FFD8
FFEE
FFA3
FFD3
FF9F
FF69
0025
003C
002A
FFF3
FFD5
0081
0007
FFF9
FF58
FFC8
FFD6
FFDC
001C
000C
0026
005E
006F
004D
00A2
FF55
FF94
FF51
0034
008D
FFA5
0097
FF64
009A
FFCB
FF73
FFFB
FFAA
FFB4
FFBC
006B
000E
FFBD
0027
004D
FFAF
FFE1
FF7A
FF8F
0040
FF8F
0009
004A
FF75
0018
FFAA
00A4
FFFA
006D
0012
FF5E
002F
00A0
0024
0071
0088
FFA0
FF9A
0027
FFE0
0079
008E
FFCC
FFA3
0064
FFB0
0072
FFE5
003B
FF71
002C
FFEF
001F
FF8A
0054
0081
FF9C
FF71
FF57
0032
0026
0011
FFA1
FFD9
0022
FFFF
00AD
FF7F
0045
FFDE
FFE7
004D
0044
00AE
FF7C
FF74
0050
001C
FFB0
FF6B
FF6D
008C
FF93
FFC1
FF9F
FFCD
FF67
0007
FF67
006B
FFA2
000E
0087
0036
000C
FFC2
FFC5
003C
00AF
0039
0014
0052
FFF4
FF64
0016
00A2
FF8D
0043
FF96
000D
FF71
FFEE
005B
FFCA
003A
0069
0098
FFA2
FFDC
FF85
00AF
0097
000E
0079
0007
002C
FF6E
005B
FF7C
0074
0064
004A
FF5B
FFBA
FFAC
FFCE
FF6E
009B
0013
FFBB
FFDB
FFED
0024
0006
0095
FFFF
00AF
007D
FF99
0099
FF78
0071
FFD6
0086
0083
006D
0067
FFBB
FF6B
FFDE
FF8C
0045
FFC9
00A9
0032
0072
FF7E
0080
0096
FFFB
0026
005E
FF8D
0001
FFDC
FF83
FFD1
FF67
FF58
FF7F
00A4
0012
00A5
FFE8
FFBD
0002
FFEB
FF74
0032
FF9B
002A
0035
FF85
FF64
0064
FFF2
FF63
00B0
FF63
0045
00AC
FFA3
FF81
FF7A
FFBA
FF72
0044
FF65
0003
00B0
006F
0029
FFBB
002C
000A
FFE6
FF7D
0089
FFEE
FF94
FFD1
FFE2
0074
0053
0060
FF53
FFE2
FFF9
FF55
FFAB
005C
FF7F
000D
FF9B
FF53
FFA4
00A9
006B
00A3
FFFC
FF76
0011
FFF0
007A
FF71
FFFC
FF84
FFC2
0054
FFF7
FFD4
FFDB
FFF2
0065
008B
00A2
0066
FFBF
0043
FFEA
FFA9
0079
FF5C
008F
FFF2
0031
0039
008C
0030
0028
FF66
0007
FF84
0054
0004
0040
FF5D
FF6D
004D
FF68
FF68
FF53
00A2
0054
FFCC
FFB8
FFCB
0061
0039
FF90
FF8C
FF72
0039
005E
FFAD
FF56
FF6C
00A6
FFB7
005F
002C
FFD6
FF98
FF7A
0029
0061
0033
000B
FF5E
00A6
006A
FFB7
00AA
0024
001D
0058
006F
0038
FF7C
FFC7
0098
FF9E
FFD3
FFE8
FFEB
0028
009D
FFA4
FF7A
FF95
0089
0034
FFB4
0070
0080
007B
0095
FFA8
005A
FFF2
0079
0051
0062
0037
FF8E
0010
00AC
009B
FF5E
FF89
FF7D
0050
0071
FF9A
0002
0079
0053
000F
0020
0003
FFB8
0017
0043
0084
0030
005D
FF87
FFF2
FF52
FFA6
0050
00AE
FF72
FFDD
006A
FF97
0014
0053
0029
FF91
FFCD
0065
0013
FF50
005D
FF5B
0057
FF96
00A2
FFD1
FFC3
FF83
FFBB
0086
00B0
FFD1
FFEE
004F
0089
0021
FFDA
FFE1
0045
FF50
002A
FFCD
0068
FF70
001F
FFF9
0032
FF66
001C
0016
0016
0025
003F
006C
FFAE
0073
FFFF
FF6A
FF63
FFC5
0065
004A
0066
0006
FFEB
FF83
FFC3
FFE9
FF6E
FF9D
0023
0054
00B1
009A
0033
FFE4
0030
0065
FF79
FFE0
0079
FFD7
0019
001F
FF90
FFCF
FFC5
FF58
FF57
0076
FFB0
0006
FFB9
009C
FFAB
FFE7
0084
0079
FF91
006B
FFF1
FFFA
FF7E
FF6B
0051
FFFF
FFEA
0051
005E
FF87
0027
FF7F
0059
0038
00A2
FF67
FF63
FFB3
FFAB
FFA6
0090
FFA7
FFAF
005C
FFEE
0062
FF66
FFFC
FF5B
FF65
0090
FF80
000C
FFE0
FFCA
008E
FF56
003A
00A4
0015
009B
FF61
FFE3
FFAB
0052
00AB
FFAA
0037
FF95
0017
FFF3
00A7
0026
FFCB
FF77
FF84
FF9F
FFA8
007C
0016
0008
FF77
0080
004F
FF67
004A
000F
FF6C
FFF1
FFFB
FF89
009E
007C
003C
FFF3
FFE1
0036
0010
FF65
0004
006D
FFF2
FF61
0066
FF96
FFAA
FF89
FFC4
005B
0007
FF97
0086
0087
0083
FFA3
FFEF
00AC
0060
FF58
FF66
FFF3
0091
000E
FFFF
FF74
0038
0072
FFD6
0062
00A5
FF97
0008
FFB4
0068
001C
0030
006A
FFDB
0093
000C
FF87
0045
0068
FFBF
007F
0090
FFB1
00AC
FF81
FF96
FF90
008C
0037
FF85
FFEB
0029
FF6C
0088
006C
0002
00A6
FFE3
00AC
003C
0030
FF8A
0087
FFE6
FF88
FF53
0015
000A
004E
008A
FF6B
0052
FF91
007F
0071
000E
004B
FFBE
FFF6
0072
FFF2
FFCE
FFFE
0074
FFC6
FF8C
004B
0074
FF72
FFA4
FF81
FFCA
FFEE
0058
0036
002B
FFCC
0079
FFF6
00AA
0030
FF7B
003E
FFC2
0042
FF67
FF8D
007E
FF9F
0078
FFB2
0033
0045
0004
FFBB
FF9A
FF5A
FFBA
0036
009B
0084
005E
0066
003B
FFAB
0090
003D
0015
FF76
FFED
FFF2
0081
0011
FFD6
00A9
FF76
FFE5
FF5E
0055
0094
FFB2
007F
FFB6
0092
005A
006C
FF55
00A4
0050
FFBB
0075
FFB3
0084
FF77
0048
000E
FF71
FFA4
FF53
FFF5
FFBA
0023
FFB8
FFB9
0056
FF60
008F
007D
003C
0021
008B
FF90
FF6B
FFA4
0068
FF5B
001D
00B0
007E
0008
FF65
0076
0023
FF77
FF70
0091
003C
0075
0086
0019
0006
FFE7
FFBF
FFE9
0061
0024
008B
FFEC
0026
002F
0021
0048
FFA3
0004
FF74
FFD7
FFFC
0036
00A0
0024
0056
0002
0030
FF68
FFA9
FFCF
FFF6
FF5F
FF80
FFB1
00A7
FFC4
FFFA
FF94
0027
FFB2
FF98
0006
FF51
FF51
FF9C
FF5C
FF75
FFC7
006B
001A
0004
FFB7
0099
FFDB
FF6E
002A
FF77
FFC9
0003
0085
FFFE
0048
00AF
FF7D
FFB0
FFDB
FFE4
FFE0
0091
004C
0026
FFBC
0073
00A1
0072
FF4F
0030
FF61
FFAA
FF64
0025
0042
FF77
FFD7
FFF0
FFD2
FF7A
FFE3
0059
FF68
FF6B
FFCC
009D
003C
003F
FFCF
0021
FF52
0030
0093
0028
0085
004F
FF79
008F
FF66
000C
FF81
FF53
FFE4
FFB7
FFFB
001B
FF5E
FF7A
0015
FFC8
0051
0036
007B
0044
FFE7
003D
FFB0
FFBB
0067
FFED
006A
0072
007F
0094
FFE8
FFC0
001D
FFD2
0024
0049
0043
FFD4
FF8A
FFE7
FF81
008A
FFC9
FF85
FF58
0034
0031
FFC7
FF68
FFE0
FFBD
003F
0026
FFD0
FF9C
00AD
FFF0
0043
FF80
FFFB
FF58
0002
00A5
FFD7
FF5C
FF5A
FFD8
FF87
FF57
005B
FFF1
FFB5
008E
FF78
00A2
FFBE
008A
0025
0074
00AC
FFB5
00A4
FFD9
FFD7
FFC7
000F
FF85
0013
000F
005D
0076
FFEB
FFBA
FFAB
FF94
FF63
FFC8
FFAF
00A5
0014
FFCA
001D
FF80
FFEC
002D
FFFC
FFDD
00AF
0087
002C
0019
002B
FF96
FFDB
FF5D
FFF7
000F
FF9F
00A5
0091
004F
000C
0083
FF7D
0067
FF7B
0068
FFB0
0086
009E
FF83
FFF3
00AB
FFFA
0081
001F
FFD4
FFB4
FF97
005D
FFD8
0004
FFFD
001B
0082
00AB
FFDF
0074
005E
001A
00A2
FF96
FF75
007E
FFEA
007B
008B
FF65
0088
FFEE
0004
002D
0097
FF55
FFF8
0043
004F
0044
FF7E
FFB9
FFCE
006C
FFB2
FF99
00A2
FF52
00B1
003F
0075
FFB7
FF54
0054
0077
0055
FF81
005A
005F
0038
005E
007B
0028
FF6E
FFFC
FF6A
FFDF
FFDF
FF66
FFCA
FF76
006D
009F
FF68
00A1
0008
FFB9
FF6A
0000
0068
0049
FF60
FF68
FFDE
FFB7
FFA1
FFB2
006C
0098
FFDE
0090
FFC1
FFF8
FF9F
0032
00AA
0025
FFCE
0034
FF7A
008A
0001
FFEE
001E
002C
FF68
0041
FFA4
004C
0072
006C
0013
0007
FF81
0062
FFAF
FFFF
FFB3
FF7E
002E
FF62
0058
FFBF
FF4F
0004
FF5F
FFB1
0049
FF65
0078
FF50
FFA6
0055
FFBF
FF73
FFCE
FFAF
007A
FFBE
0066
008B
FFE9
0091
FFD4
00A5
FF6E
0042
FFFE
FFD8
002F
0048
FF50
FF8A
004C
003B
00A5
005D
00A0
0048
FFB8
FF74
0064
0033
FF60
FFCE
00A2
0000
FFE8
FFF1
FF99
FFD1
FFD2
FF61
005F
FFE2
0072
007C
FF9A
0038
FFF6
0087
FF9B
003F
0026
FFB7
FF7F
0036
0055
FFBF
0033
FFDB
004C
FF95
008A
FFB5
FFD1
FF63
FF76
0006
FFAE
0077
FF54
FFD5
FFC6
FF55
FF7B
FFE1
FFFD
FFDE
000B
0022
FF52
FFF3
00A4
0007
003F
FFBD
0061
0061
0008
00A9
FF7B
FF55
0060
006D
FF79
FFAD
FF55
FFB7
0061
0006
FFCA
FFD3
FF4F
FFB9
0034
00A8
007B
FF57
008D
0064
0063
FFF1
FFDC
FFBA
FF66
FFA0
FFA6
FFFA
0058
FFF7
FF63
00A2
009D
0065
00AE
0010
00A4
FF69
FFD0
FF9F
FF94
FF81
002B
0064
001C
FF83
006E
0030
FFD8
003E
FFAB
FFC9
0094
FFB6
FFF5
008A
004A
FF65
FF83
FF51
002E
FFED
FF7E
00A2
000B
FFA4
0000
0040
FF6A
FFB0
006D
FFF2
0011
FFE8
FF5E
FF89
FFED
FF99
FF60
007A
00AB
0068
007D
FFA4
00A3
FF94
00A0
00B0
004B
00AB
0019
FFAB
FFEA
0021
FF69
002B
00AB
FF92
0068
0091
009D
00A3
0008
00A9
005B
FF88
FFF8
004D
FFA6
0032
003B
FF88
0017
0060
0000
FF53
FF52
FFCD
0097
FFA0
0030
FF9D
FFC1
007B
0051
FF70
FFE7
FF59
FFF9
003A
FF79
FFB5
FFDC
0095
00AF
FF5F
005D
FFD2
FFDA
005A
0094
00A0
001B
FFCD
0066
FFA8
0017
FFCE
0038
FFA4
FF93
0094
FF73
0002
FF9D
FF5C
FF5B
FF8D
0082
FFB3
00A0
001D
FFEA
001C
0006
005C
FFB3
FFCC
008C
009E
008B
FFE3
0063
FFF8
FFFF
FF97
0020
FF91
FFC4
007E
FF98
FF68
FF67
009C
0002
FFE0
006E
0077
FFC4
0045
0060
0037
FF84
0085
000E
FFB3
FFE5
FF5C
FF7C
005E
FF4F
FFE2
0008
FF62
00A8
FF9F
FFBB
FFBA
FFA0
FF4F
0051
00A6
FF9E
003A
0056
007C
FFE5
FFBA
FFC2
004B
0070
FF8F
FFD2
008F
006D
00AC
005A
FFDA
0020
0039
FF6A
0010
004A
FF8A
0064
001E
00A0
FF5E
FFAD
0024
FFB8
004C
005C
FF73
0005
0003
FFD2
009A
0074
0046
004C
FFF2
0095
0045
0051
0080
FFB0
006D
FF94
FFC9
FFC6
00AA
007E
0047
0051
0016
009F
FFFF
FFD6
FF88
0066
0053
FFD7
FF58
0078
FF53
0048
00A7
FFEA
FFA2
0049
0070
0010
00A6
FF61
0002
004D
0081
FF8E
006A
0013
FFDB
FF7D
0082
FF86
FFBD
FFB6
0084
003D
0069
FFA7
002C
0019
0076
0090
FF53
003E
FF61
0011
FFB5
FFBB
FFCC
002B
FFC5
0053
FFDE
FF67
0065
FFB4
FFE8
0042
FFC5
FF63
FFD3
009E
0032
003D
002F
FF95
FFE3
0059
FF73
FFB1
FFB1
FFE8
00AA
FF67
0007
FF8E
00A7
FF77
FFDE
0054
0049
FFE5
FFCA
FFDC
FFAC
FF97
FFFA
FFAE
FFB5
0038
00A6
0025
FF6A
FF69
00A0
FFB8
FF6F
0023
002C
0035
FFAD
FF54
00A5
FFA8
003E
0049
0027
FFBE
FFAF
0023
0082
009E
FF74
FF86
009E
0054
0088
FF97
001F
0047
0040
FFDF
FF54
001D
FFA8
FFEE
00A2
FFDC
0079
FF92
003D
00A9
FF73
FF52
FFE8
FF6F
0058
0093
FFE9
FFAA
FFE9
004F
FF52
0020
0028
0031
FFA4
004C
FF6F
FF95
0086
0055
FF54
FFA7
FF9B
FFAF
FFA6
FF65
FFF1
0053
0026
003D
FF6B
00A0
0078
006C
0073
0099
0010
FF96
0029
0056
0054
0008
FF67
FFD2
0095
001E
000E
FFAE
FFD1
008C
003B
0066
FFF0
002E
FFA7
0049
FFE6
FFEC
0035
009B
FF65
0073
FFB6
FFEC
FF56
FFB9
0001
FF63
FFFD
0098
FF74
005E
FFE0
0037
FFAB
FF87
FF88
FF68
FF90
003A
0087
006F
0042
FF76
FFB5
FFBD
FFA7
0005
000D
FFCD
FFCC
0075
0067
FFBC
0093
00A1
FFC3
FFCC
0002
009C
0085
FF73
FFDA
0013
0001
FF93
007F
003F
0078
007F
0058
FFEA
0027
FF88
003E
FF8E
0045
FFA0
FF78
FF89
FF4F
004E
0052
0005
FF88
FF6C
FF55
FF89
008B
FFA4
FFCC
FF74
FF9E
0007
0026
FFA6
FF63
FFD9
FFA2
FF9D
00A3
0029
0014
FFE2
FFE7
000F
0046
0048
FF8C
0000
FFE1
0083
002F
000C
FF78
0025
FF78
FFC6
FF81
0044
FF98
FFDA
008C
FF97
0003
FFE3
FF55
0068
FF67
FFF7
0016
002E
0043
FFA8
FF52
004F
000D
0077
0072
007A
FFFB
FFC5
0067
FFEF
FF90
007E
0088
FFF4
FF69
FFD8
006C
008F
FF97
FF66
0086
FFD9
000F
00A6
FF66
0035
FF69
FFD4
006C
FFE8
00B0
0015
FFC1
FF9D
FFCB
FFD3
FF67
FFD2
FFF3
004F
0038
004A
FF52
FF9C
0039
FFFA
FF51
006C
0061
0011
FF66
005F
001E
0064
0059
006B
0006
FF80
003D
002B
0056
FF8B
FF94
008A
0059
0091
005C
0022
0037
008A
001C
002F
FF86
FFF7
004D
FFAF
FF96
FFBE
FFA4
FF9B
FFE5
0091
0003
FF91
FF6A
0046
FFD6
0072
0039
0069
FFAF
0044
FFAC
009C
0030
FFC2
FFAE
FF92
0045
FF9C
0022
FFAD
0039
0070
0063
005D
FF91
FF6E
0047
FFD1
FFE8
FF5A
FFAB
FF5B
0087
FFA5
0014
FF5C
003B
FFC1
008D
008A
FFC2
008E
00B0
0073
007A
FFA7
001B
FF66
FF70
00B1
FFC3
0058
006D
007F
00B1
FFA4
FF5D
FFE0
FF7D
FF57
FFCE
0065
0017
FFBE
0037
FFA1
FF54
005E
002C
005D
FF5C
0078
002A
0016
002C
0081
001F
001D
00AE
005B
FFEC
004A
FFD9
FFA0
0022
0098
0098
FFC8
000A
FF9A
00B0
00AB
0035
006C
004C
0021
FF62
FFF0
003E
003F
FFD3
009D
FF8A
0000
0044
0046
0035
FFB0
FF86
0030
0023
FF8E
0049
FFF0
003C
0078
FF8B
FF55
0063
0027
0047
0078
006B
00A3
000D
FFFC
FFDD
FF85
001A
FFB1
0095
001E
0021
FFCD
FF61
FF5A
FFE5
FF6D
0026
0087
0088
0038
FF9A
0081
0089
FF94
0054
FFB4
006B
00B0
FF59
008D
002B
00A8
FFF4
007B
FF65
FFC6
FF66
00A9
0070
007D
009B
FF6D
FFD7
FF68
FF99
FFA0
FFF5
FFAE
FF72
FF8A
FF83
00A8
005C
00A6
FFEB
FFB1
006A
FFC2
FFB9
FFA1
FF7D
FFAA
FFCD
003E
FF65
FF99
006E
FF83
FFC8
0081
FF86
FF6C
FFFB
FFBA
0016
006C
FF7F
001D
0002
FF82
002C
FFB0
FFFC
FF6C
FFF2
FFBB
0072
FF63
FFE3
FFF1
0050
001A
003B
0062
0080
FFBE
000D
0079
00AE
008A
FFD2
FF94
FFFC
0056
FFFD
FFFA
0078
FFCF
0080
FFDF
FFC3
FFF0
005D
FF7B
FF94
00A0
FF8D
0018
001C
FFFC
0033
FFA0
0013
FFD3
0039
FF81
0019
FF90
FFB1
FF9C
FF8F
0074
FFB4
0098
00A7
0019
FF81
FFD3
006A
FFD1
FF6E
0014
007A
0069
FF8D
003D
FF9D
FF9C
0085
FFA7
FFAC
FF4F
0083
0068
002D
0059
FF85
FFF1
FFCB
FF70
FFFB
0095
FF5D
FFB6
FF98
FFA3
0091
FFF5
FFF4
005C
FF85
FFFB
FFE7
0022
00B1
0060
FFDC
0074
FF8B
FF59
FF97
FFC7
0004
0029
0092
0003
0000
FF60
FF5B
0012
FFEA
0078
FF88
FF57
FFEE
FFA3
FF60
0050
FF76
0026
FFB2
FF8C
FFD5
006B
FFDA
0059
FF7B
0061
FFA3
003F
0017
0098
FFD8
FF66
FF55
0074
0009
0062
FFA2
FFC9
FF59
00A4
003C
009A
FFAD
0028
003F
FFBF
007B
009F
0089
0055
FFB1
FFB3
00A4
FF52
004D
0049
002C
00AE
FFBD
FFC7
FF6B
FFEC
FFAB
FFC8
0077
009A
FF91
FFD3
0098
FF65
FF6F
FF88
0022
FF84
00A6
FFED
0001
FFA6
FFF6
0039
0059
005A
001C
008F
0071
005B
FF62
FF51
FF9A
003A
FFE0
FFDD
0088
008C
0091
FFBE
0044
FFAF
FF92
FF90
FFC8
FFE7
0075
FF79
0053
000B
FFB5
FFFD
FFB9
0022
FFE9
FF89
FF78
0011
008F
FFC9
0053
0038
0099
0072
0018
0038
008D
FFDC
FFC3
FF52
0074
006B
FF74
001B
FFF3
FF79
00AA
FF9B
FF66
0022
0055
FF5A
0038
000B
FF73
FF8C
0018
FFB8
009B
0071
00AC
FFAB
00A7
FFE8
FFCA
FF60
FF61
0044
FFF1
FF9F
0028
FFA8
001C
FFCE
0073
0072
FFF8
FFCB
FFCF
006C
FFC3
FF99
FF6D
FFF4
FFFA
0079
FF9D
FFD6
006D
0073
FFD7
FFF2
FFBA
0099
FF79
009A
0041
000B
FF5A
FFF7
FFDF
FF88
0037
00A7
0016
004C
FF67
FFE3
FF78
0028
009C
0039
FF6A
FFCC
0012
FFDE
0076
0070
0028
FFD3
FFA9
FF74
FFCD
FFE1
003E
0038
FF68
FFDB
FF8F
FF86
0074
FF5E
FFE3
FF8A
0087
0014
FFA1
0001
0052
00A3
FF9D
0089
009A
0094
0030
002E
FFDE
005A
000B
003F
FFE7
0052
0073
FF83
0076
000E
007A
FFE8
FFD5
0093
FFA8
007A
FFFA
0005
FFBC
001A
FFC2
FF5D
FFAF
FF51
00AA
00A5
FFDB
0051
FFC9
003D
006C
009E
FFDD
0064
FFAD
00AE
FF58
0025
0039
0043
FF79
009C
FF8F
002C
FF9E
FFBC
0010
FFE3
FF87
FF8B
FFE3
005B
008D
FF6C
FFDA
FF72
FF55
0039
0024
FF88
FFA2
FF57
0077
00A8
FF7F
FFA1
0083
0097
FFE3
FF61
FF5D
001A
FFDA
FF59
001E
FF53
0066
FFBB
FF5D
001F
FFDC
00A8
0010
FFB0
004A
FFAF
008F
FFD4
0012
FF61
FFE6
0076
006C
FF9E
FF9F
0071
0099
FF70
FFEE
FFC6
0083
FF6C
FF9A
005A
FF61
FFFD
FFEB
FFC5
FFDB
000B
FF88
001A
006C
005C
FF85
FF84
FFAE
FFCF
FFE0
0040
FF63
FF5B
FFDA
0046
FF93
0032
FFAB
0089
008C
FFB8
FFA0
FFE1
FFA4
003D
0074
003D
0073
FFDB
FF86
0054
FFCF
003D
FFAF
FF6B
00AF
FF86
00AD
00A9
0068
0039
001C
0082
FFB5
FFF5
002A
FFE0
FFE6
FFC4
0017
007C
FF96
009A
0043
0073
0014
0063
FF54
0071
FF5D
008A
00AF
FFB7
FF99
005E
FFA8
0082
FF73
FF7B
00AA
003E
007B
FFC2
003F
0021
0025
0041
001B
FFE7
FFB1
005F
FF9F
0044
FFA1
002C
0058
FF9C
FF64
FF7D
0026
007C
FF5F
0053
FFC8
FFF8
0098
FFC4
FFF4
FF53
FF6C
FFAA
FF59
002F
FFE6
0011
FF8D
FFB8
003A
00A5
FF61
008A
001B
0017
0000
FF67
FF6F
0024
FFC8
0094
FFDF
FF81
004C
FFB7
0009
0046
008E
0068
003F
0040
009E
FFB8
FF4F
FFAF
FF9C
0039
002F
0021
FF54
0051
FFC1
003B
0014
FFC8
FF7E
FF70
0076
0094
0035
FF73
FFDD
0051
0063
FF79
FF4F
004B
FFCD
FFA9
FF53
000E
007D
00A2
0017
0005
FF6D
0011
FFD5
0026
FFD9
FFA4
FF70
FFBE
FF71
FF8D
00AD
FFEC
000B
0085
00B0
001D
006F
FFC3
FFBB
FFDD
003D
0041
FFBE
FF7E
002F
FF7C
001C
0045
0047
005A
0084
0000
0052
002A
FF91
FF58
FFB4
FFEC
002A
007C
FF94
FF7B
00A4
FF75
FFF8
001E
000F
FF6D
FF63
FF74
001E
0010
FFA2
0031
0072
FF5D
FFFF
0043
FFA8
FFBC
0028
008D
006E
001D
0052
FFD0
0032
FFF4
FF92
0048
0014
FFCE
0092
FF56
FFBF
FF63
005F
0048
FFC4
003E
FFDB
005B
FFF0
FFE1
009A
FFA8
FF79
001E
00A6
FFD5
FF65
FFC7
0002
FF88
0038
00B1
FFEF
FFCC
FFDD
FF77
0088
FFE2
FFD8
0039
FFEB
0035
FF64
006F
009C
0035
00A1
FF84
FFF8
0024
001D
FFDD
FFC7
FF7C
FFDA
FF88
0053
FF99
FF63
0013
0022
0084
001B
FFC9
006B
000E
FF6B
0017
0091
FFDB
FFB8
FF82
FF84
FFE8
0022
FF6B
009C
005B
001F
0075
FF6B
FFF8
002E
0075
0065
FFB1
009C
FF7B
0085
00A7
FF8D
004F
FF5D
FFDE
0006
001D
009B
003D
FFF9
006E
00A0
FF56
00AB
FF6D
0070
FFB2
FF7E
FFEB
0033
FFD6
FF62
0023
008F
FFD7
FF9B
FFEC
FF60
0072
0074
001F
FFCC
006A
0013
0074
002F
0065
0023
FFE2
00A2
000F
0025
FF9D
002D
0019
FF90
FF64
0025
005E
0008
FF9F
003B
FF6B
FFEB
FF89
FF90
FF96
FFD8
FF61
FFDC
0004
FFFA
FFD6
0078
FF82
0002
FF65
FF68
001A
0017
0086
0015
00A3
FF60
FF71
FF5E
FF90
000F
0034
FF5F
009E
0079
FFB8
FF6A
FF8B
FF7C
FF7A
0007
FFA6
FFCE
00AE
0041
009F
FF81
FFD6
0013
FF6A
FF50
003C
0032
FFE0
FFFC
FFE2
FF57
FFC6
FF8D
FF72
00A2
0023
0051
FFBF
FFDA
FFA3
FF71
FF8E
006A
003F
0011
FFF7
0096
FF68
FFB2
FFCB
0064
00AF
FFA4
0085
0075
FF9E
FFDC
FFE0
00AA
FF8F
006A
FFC5
0052
FFE4
001C
0076
006C
0082
FF64
0044
FF80
FFE2
0011
FFDD
0007
00B0
FF7F
003E
FFDB
FF7E
FF87
009F
0087
0090
00AE
FF99
FFCD
003C
FFFA
FFE3
FFCE
0021
001B
FF88
FFF6
0013
0019
FF99
0056
FF58
FFCD
0063
0017
FFAB
0045
0018
0069
0053
0027
FFFC
FF7E
FFAB
FFE3
0023
0005
FFB5
FF51
FFFF
FFB4
0053
FF57
001E
009D
FF8D
FFF6
FF6F
002D
0012
FFDF
0008
008D
FF94
FF57
0080
001B
008B
0022
006E
FFE7
0059
0093
001A
FF8F
FFAE
FF95
FFA6
FFBB
0014
001F
FFE6
0029
FF6C
FF6E
FF8C
0006
FF9B
FFB3
FFDD
006F
FF54
0035
003C
006A
009A
FF56
FF85
0089
FFF1
0017
003A
0040
0099
00B0
004E
FFB5
0087
FF60
FFA1
008D
FFAA
FF9D
FF80
007F
0000
003E
FFA3
005C
005C
FFBE
FFE0
FF99
00A9
0034
009A
FFBA
0064
005E
0044
00A5
FFDA
FF7D
003D
0051
001B
FF98
0002
FFBD
FFE6
0034
0057
FFA1
FFDE
FFAE
FF95
0065
0091
FFD2
0059
008D
007B
FF8F
00A2
FFD4
FFC7
FF65
FFFB
FF75
FFA7
FFBF
006E
0085
FFBA
007F
007F
005E
FF83
0044
009E
0041
FFC4
0000
0034
0004
FF79
FFBD
006B
0080
FF7F
00A0
FFC3
003A
0059
006F
009E
FFBE
007F
FF7D
0049
0056
003F
FFA8
0084
FF8B
FF62
004D
FFF7
007C
FFD7
FF8A
0077
0011
FF92
004E
0004
0025
FFF2
0075
0075
004A
FF74
0078
003D
0046
FFCF
0087
0050
FF77
FFDF
0089
FF5F
00A4
0040
002F
FFAF
FFA7
009D
FFB8
0062
FFDA
FF80
FF52
0010
00A9
FFD2
FFCD
FFC9
0007
FFEB
0087
0002
0003
FF80
00AB
FFA7
FF69
003A
0022
FFE2
FFE4
0065
FF94
0072
0035
FFE3
FFF1
FFAA
0059
0005
FFC0
0022
00B0
FFE9
0095
FFC9
FF62
FF97
FFE3
FF9D
FF4F
0093
007A
0056
FF8A
FF79
FF67
004F
0098
FFE7
FF79
0004
FFCA
FFD4
002B
004E
FF76
FF5B
00AF
FFA1
FF62
FF92
FF5C
FFDA
006B
FFC8
FFEC
003E
0003
0080
0082
FF52
0063
FFF2
00AD
FFFA
00AD
005A
FFA7
000E
00AF
007F
FF71
0049
FFC9
FF51
FFDE
FFA2
0071
FFC6
0074
FF4F
FFBC
FFA4
FFA1
FF67
FF91
0014
FFB6
FFE3
FFD4
0085
0090
FFFE
FFC4
FF75
00A1
FF64
FFB8
FFB8
FFC0
FF89
0064
FF7A
0030
FF7B
FF68
0091
FF92
0072
0010
FF6A
00A2
FFA6
0080
FF8B
007E
FF53
0004
0060
009A
0091
0071
008A
FF95
FFB3
FFB5
FFD4
FFDA
0010
FF87
0044
FF8A
FFBD
0001
0069
0055
0034
FF86
0011
FF6E
FFD4
FFE1
FF5D
FFB0
00A2
00A1
FFCC
FF5E
FF8E
FFDA
009F
FF81
005D
FF75
00AB
FFD6
0062
FFC8
002D
FF93
FF82
009B
0094
0089
002C
006D
FF67
FFC5
FFBE
0030
FFCD
FF83
0022
0070
FFD6
FF7E
FF94
FFA3
FFB9
0033
0024
0046
FFCF
0073
FF97
FFF5
006B
FF8F
FF76
0088
FFC8
0041
FF58
0043
FFBF
FF62
0027
FFA4
FFD8
FF6B
FF83
FFB8
FF6E
0092
FF51
FFFA
FF7A
FFBC
0097
FF88
00A5
FF98
0056
0011
0088
0013
000C
FF94
FF8A
0094
FFC3
FFD3
005C
FFC7
00A0
0054
0023
0087
FF60
FFAA
FFF4
FF9F
0057
0095
FFE5
FFC8
00A4
FFEC
FFFC
FFCB
0091
0018
005D
006F
FFC8
FFE8
007C
FFCF
0068
009C
002C
0056
006C
007A
FFDB
FF61
FFDD
003E
FFEE
0058
FFCD
0030
FF91
0058
0010
FF97
FFB6
0058
FFFA
FF9B
00A6
004C
00A2
FFE6
FFF7
008D
0009
004A
FFA8
FFED
FF7A
FF98
FF4F
FF5D
00A9
FFA5
003A
0078
0012
FF85
0051
0024
0052
0060
00A9
001A
FFC8
0035
FF67
008D
FF79
FFC3
0070
0023
FFDA
FFF7
007E
FFC7
0083
FF6E
0062
007B
FF8F
FFE7
FF89
0049
000D
0030
FF94
FF9A
FF5D
FFC1
0015
007F
003B
FFE9
00A1
004E
0099
000A
FFAA
FF61
0050
FF7A
FFBA
000C
0017
0024
FF8A
FFD5
002A
00A7
0051
0096
005D
0021
FF93
003B
002C
0024
FFFC
000A
FFC5
0007
FF95
006C
FF91
FF6D
FFE9
0038
FFEA
FFB1
0015
FFCA
009A
0096
0001
FFC3
0054
FF5C
FFF7
FFC6
0095
FF53
0013
0055
FFFB
FF6D
00A8
0006
0029
FFA3
FFFA
FFE7
FF69
FF74
0078
FFA4
FF94
0002
005F
FF65
001B
FF79
FF5C
FF61
0077
FF78
FF5F
FFEA
007A
FFAC
FFE4
FF5D
FFEE
001C
0019
FFC5
FFBF
FF74
FFD1
FF72
005F
00A5
00A7
0081
0024
0047
FFB4
002E
FFF0
FFFA
005B
FFB3
FFBF
0097
FF63
FFFB
0092
0027
0010
FFA7
FFC8
007D
0015
0005
FF72
FF54
00A4
FFD4
0025
FF6B
0041
0099
001B
FF7B
001D
005E
FFDF
0087
0035
008E
002C
FF7D
FFBC
FF96
0091
005C
003F
FFB9
FF90
005B
FFF7
FF9F
0029
FF5D
FFC2
FFF5
FF83
00AC
FF99
FF7D
FF97
005F
FFE6
0017
FF56
FF5B
FFED
0070
0089
FF6D
000E
0093
FFD8
0075
FF7E
009A
0059
009D
003F
FFD0
009B
FFB0
FFC4
0047
005E
0098
FF97
006A
0055
FF65
FFD8
FFB3
FFBB
00AB
0033
004D
00A9
FFD4
006B
FFE9
0083
FF8F
009F
FF9C
FFC2
005B
FFDA
0026
FFEC
0056
FFA0
FF63
FFB9
FFF7
FF8A
FFCC
FFDD
FF63
001E
0088
FF84
0023
003A
FFE3
0047
FFE0
0002
FF51
0044
0039
FF5C
FFD1
00AA
FFE4
0001
0091
004D
001D
006A
0081
FFF1
FFF7
FFD8
00A6
0046
FF6C
0081
FFF9
FF67
0012
FFE3
0086
FF97
0074
0014
FF62
00A7
0004
FFB6
FFF5
007F
FFBB
FF93
FF7C
FFB8
0063
FFF6
FF9F
FF8A
FFC5
009C
FFC8
00AD
FFFB
FF8E
008B
FFF2
004A
00AC
FF60
FF71
004E
FFB3
FF90
FF5D
FF56
0061
FF7E
FFF5
0026
FFE7
FF58
0065
FF52
005D
008C
FFE8
000D
FFF8
FFD9
0089
008C
FFC6
0029
0097
00A4
0003
FFEF
FFB1
00A3
FF81
001C
FFB3
FFB2
FFDE
00B1
FF62
001C
FF6C
FF85
FFEB
0004
FFAA
FFBF
FF6D
FFBA
00A5
009E
FFC5
0019
0091
FF51
006E
009F
FF6F
FF88
00A3
000D
FF54
FFAA
FFEE
0044
0053
00B0
FFB5
000E
000C
FFDF
FF8B
00A9
007D
FFFF
0025
FF9F
0010
0045
0005
00AE
0027
FFD2
0061
FF8B
FFD7
FFCA
FFE8
0064
FFFA
0068
001B
FFC8
006E
FFA3
FF9E
0002
FFAB
FF52
0035
0004
FFED
00A6
0019
0081
FF80
0019
0083
001D
004D
FFD3
FF6F
FFF1
FFDB
0082
FFA5
00A6
00A3
FFA6
FFCA
008C
00A6
FFEC
FFC1
0009
0043
FFB0
0054
FF61
FF60
FFD8
FFCC
FFBF
FFFD
FFC0
FF93
FFBC
00A8
FFE0
FFEC
001B
00AB
FFA4
0040
004D
0026
FF6E
003F
FF65
0022
0055
FF99
0079
FF59
007A
FFF2
FF9C
FF7E
00A1
FF68
FF95
FFCA
002B
0010
FF7B
FFB5
FFA3
FF9A
FFE0
0048
FF9C
FFD1
FFD9
00A9
00A1
006A
FFA4
FF67
FFBF
FFAD
0002
0063
007F
007A
FFCE
0042
FFBE
FF64
0048
FF52
FFE0
FFC3
0045
005E
FFBB
006F
FFB7
FFED
0051
0044
00AD
FF9F
003A
0027
0093
FF86
0059
0018
FFB0
FFF7
FFC5
001C
008A
0019
002F
0007
FF61
FFA1
FFFD
FFBD
FF8F
0001
FFC1
FFAA
FFF3
FF7E
0098
0082
004A
FF74
0062
006D
005F
FF77
0033
0077
001B
0034
FFF1
000A
FF5B
0031
FF6C
FFE9
FFB6
0010
FF7E
0044
0069
FF89
FF74
FF82
0086
000A
FFF4
FF74
0035
0083
0074
002D
FF69
FF77
FF60
FFAA
FF7F
FFAB
FFD7
009D
0027
0077
004B
FF77
0054
FFB0
0031
FFC8
00B1
FFAC
FFB2
0099
FF57
0046
0050
0077
00A8
00A9
FF66
0072
0034
0034
FF7C
0035
00AB
0092
FFEA
FF5D
FFCF
0074
0047
FFF2
FF62
FFE6
FFF5
0098
0032
FFBD
0009
FF66
00A8
FFCE
FFF8
FFCD
0041
003A
004C
FFAE
FFBF
FF7B
0037
FF5D
0023
0083
008B
FFEE
FFF2
FF6A
003D
0072
FFA5
FFE4
0078
0086
FFA5
0012
FF93
FF73
0092
0072
005C
FF60
007A
FFEA
FFC8
0010
FF6F
005B
001D
FF91
FF91
FF90
FF63
001F
0079
FF55
FF60
001A
0071
FFC3
FFCB
0022
FFB0
FF58
0053
002D
001D
0056
003E
FF98
FFCC
FF7B
FF7D
003F
007F
00A4
002E
FF90
FF74
006F
001C
002A
0064
0048
0077
FF63
0058
007C
FFB4
0032
FFBE
00A2
FF5A
001C
FF8A
004B
FF8D
FFA2
FFFE
0093
FF9A
FF82
005C
0000
0092
FF83
0034
FFA1
FF86
0041
0021
005A
FFBC
FFEE
FFDE
00AC
FFB6
FFB7
FFCC
0017
FFA8
0093
FFAD
008C
FF73
0038
0090
FF8A
00A6
FFEF
009E
003F
FFBA
FF91
FFBA
FF70
FF82
FF74
FFE5
0069
FF81
FF7D
0033
FF95
FF71
FF8A
0096
0072
FFCC
0037
000D
003F
0041
002E
FFAD
FF5C
FFF0
008B
0019
0076
00AE
FF89
0044
003E
00AA
00AC
0042
FFA5
006A
FF75
0064
0092
FFD6
002E
FFE7
FFEA
FFBD
005D
009B
009C
FF8D
0085
0054
FFA8
FF67
FFAE
0092
002F
004E
FFAA
004E
FF59
FFD4
002D
FF82
0073
FFA2
0036
FFDE
0022
FF75
FF55
0091
FFAE
0071
00B1
FF9A
FFAD
003A
00A5
0093
0001
0069
FF7F
00A9
00A5
FF89
FFB9
FF72
FFAF
0070
FFD5
FF6E
FFC8
00AB
002E
FFE2
FF8A
00AC
0072
FFB2
FF67
FF63
FF79
001D
0098
FFFF
007A
FFED
004A
0052
FF8C
FFCF
0031
FF68
FFCF
000C
00B0
FFF7
0070
FFE8
0069
0022
0089
FFE0
0025
002E
FFE3
FF82
FF70
FF55
0085
FFA3
FF9A
0054
FFC0
0002
FF88
00A3
007D
0081
FFDF
005D
FF82
FF52
FF56
001F
FFF0
0006
FF51
FFE5
004D
FFEC
0052
FFA1
006F
001F
FF99
FFA3
002D
0075
FFE2
FFAA
0082
003C
FFEE
FFFC
FF97
002D
FFCE
00B0
FFF9
FFFB
0017
0094
006B
FFEF
004E
001F
FFFD
FF93
FFF3
FFA6
0093
FFC6
00A0
000C
002F
000F
FF7D
FFD4
FF72
002C
FFED
0063
FF9D
FF89
FFDF
0097
004B
FFE3
0006
FF6D
00AC
003B
FFB4
001E
FF75
00A5
FF8D
0035
FFA6
004D
0062
003E
0029
008B
FF6B
FFC4
FFA7
00AD
FFD9
0053
0042
FF9A
FFA3
FFB2
FFE0
FFA2
FF56
0087
00A5
FFC8
FFC7
FF51
0040
0073
FF83
FF87
0067
0029
FF5F
002B
FFBC
FFD1
0060
006E
FFDD
009F
FFDF
0060
FFFA
008D
0091
FF6E
009B
0073
0067
FF96
006C
007C
FFB5
00A0
FF60
FF84
000D
001B
0033
FF55
00A3
FF5E
FF81
FF54
0018
0099
003B
0072
FF53
000F
FFF2
0000
FF68
0041
0001
005E
FFFB
FF84
0035
FF8C
0084
0028
FF86
00A4
0007
FF68
002D
FFA8
006C
0071
00AA
0001
FFF0
005A
FF7E
0011
0010
FF6E
FFE3
007D
007E
FF72
FF6F
FFAC
0085
FF7C
004E
FF73
002C
FFCD
0066
FFA2
0031
FFA2
004C
0085
FF7C
0082
0021
FF7C
FFE6
FF88
0047
005C
FF74
0002
0070
009B
0005
00A0
000D
FFDA
007C
FFFE
FFF6
FFFD
007B
0076
FFDE
FFC5
FFFD
001A
FFA3
0068
FFFB
FFC5
FF75
FFA3
009F
FFBB
FF8B
FFF2
FFBC
FF5B
FFC1
0010
0012
FFCD
FFED
00A5
FFD4
FFAA
FFA5
FFF1
005C
FF98
004A
FF56
FFE3
0062
FFC7
0017
FF97
0056
FF61
007D
FF95
0085
FFCC
004F
FFC0
0090
FF7C
FF8E
FFFE
FF6C
FF94
009D
00A9
FFD4
0096
0010
FFAE
0048
0038
00AE
FFAD
003D
FF61
FF77
FF50
00B1
006B
0066
0003
FFB9
FF84
FFB4
FFD4
005B
000E
FF6A
FF55
FF73
FFE0
009A
0031
006B
FFF4
FFCF
FF75
0085
0064
FF8A
0004
FFFC
002C
009E
001C
000E
FF60
FF65
FF91
FF5A
0056
004F
FF7F
0077
FF86
FFB9
FFA7
FFD3
FFA9
FFFC
FFDF
00AD
FF62
FF81
FF61
002D
FF62
0077
0004
000A
0016
FF8B
FF95
FFC0
0021
FF99
FF78
00A7
FF56
006B
0066
FFB8
FF7F
FF82
0046
0033
0064
009B
0044
FF86
FFA5
0079
FF99
FF68
0048
FFDD
0095
0035
FF6F
009F
FFAA
FFC6
FFDD
FF61
FFFF
FF7A
FFDD
FFCB
0061
006C
FF85
FFD1
FFD3
FF84
006A
004A
FF92
FFD1
FF74
002D
FF7A
00AC
0064
FFD9
001C
0092
0013
FF8D
FFD5
007A
0033
0035
0082
008C
0095
FF70
0010
0055
005B
0026
FF8A
006A
004E
FF6D
FFF3
FF8C
FFC6
FF55
FFDD
0012
002A
003A
0077
FF9B
FF79
007D
FF86
00A8
007A
0000
00AB
FF71
FFBA
0031
FFCB
0098
FF66
0012
0020
0036
FFA9
FFD0
007A
FF94
0074
0016
005D
004C
FF98
0018
0082
FFE8
00A6
FFEF
FF81
FFD9
00A0
FFC0
0083
0087
FFCB
FF6C
0050
FFBD
0064
FFEC
FFFB
0063
FFD6
FFEC
FFD4
FFD1
0009
006E
FFCF
0009
003D
FFAE
FFB1
009A
004F
001B
0034
FF59
002A
0003
0010
FFCE
FF6C
FF93
00A0
FFE0
FFF4
FF61
FF5C
004D
000E
0003
FFA5
0057
FF8A
FF92
FFF2
FFB4
FFA6
0034
0036
0073
FFE3
FF69
FFB0
00AA
0022
004A
FF51
0006
FF5C
0019
0095
00A6
000E
FFF1
009E
003E
FF66
FFF4
FFA4
FFF5
FFF0
001D
FFCD
FF89
0001
0075
003A
FFC7
009A
0092
FF99
FF5D
0056
0074
00A6
008A
0024
000B
FF59
FFA6
FFF2
002E
0014
0056
FFB2
0017
FF6E
FFE1
0059
0045
00AE
FFB1
FFFF
FFC4
FFEB
007F
0041
0088
FF97
0084
FF64
008A
FFC3
FFBE
0004
009C
FF60
FFCC
007E
FFDB
FF95
FFE5
FFD7
0093
005D
0002
00AD
FFF4
FF63
FFAC
FFE9
FF86
009F
005F
FFAE
0020
004F
009D
0087
0005
0061
0016
0013
FF77
FF7B
000A
FFAE
FF56
004F
FF5A
0022
000E
00A6
FFFA
FF65
0012
0079
00B0
FFE7
FFC0
0090
FF92
0029
FFDF
FF5D
FFCA
FFAD
0042
009F
FFAE
006E
FF62
000E
FF68
009A
005E
0038
0073
0034
00A6
004C
0097
0006
FF78
000A
FF7C
0021
FFFA
002B
FF52
FF94
FFFD
00A0
FFD7
FFE5
004C
0025
FFB9
FFE0
FF9C
00A5
FF7D
FFD3
FF58
FF9D
0063
FF96
FF6B
FFF7
FF52
FF6D
006D
0060
0093
007E
0041
FF61
0064
007B
006A
0003
FFA1
007A
0051
00AB
FF86
FF9F
FF9A
0068
FF91
FF66
00B1
FF57
0077
FFD0
0079
0013
008E
0097
FF52
FF69
FFA7
003C
008A
FFF2
0026
FF92
006C
00A6
FFAE
FFFE
FF6D
0015
0001
FF82
FFEB
FFC5
0008
001E
FF52
005D
004C
FFD1
FF61
005A
00A1
FFA4
FFC1
FF90
001B
FF86
FFCD
0046
0015
FFD8
FFE4
0016
FF51
FF6A
0087
FF6A
0049
0095
FFAF
FFD2
0018
0087
009D
0055
FF6D
003C
FFE0
FFF6
FF60
FF92
0067
FFF0
FFBA
FFD7
007E
0058
FFAF
FF78
FFA8
0095
001D
000C
0022
FFD0
006D
0008
FF78
FF7C
000D
009B
FFBC
0083
005E
FFA7
FF5C
FF73
0051
FF95
FFD2
0001
0050
FF77
FFDF
FFFB
000E
0071
FF8C
006D
0044
0014
0047
FFE1
FF80
003B
0009
0031
FFC7
0090
001F
FF6D
FFEE
005B
0068
FFFE
008C
FFAE
FFE0
008D
008D
0042
007F
FF6E
0081
FFC0
FF8E
FFA4
FFE3
FFA8
FFC0
FF7F
FFB8
001A
FFEB
FFCA
0057
008C
005B
FFC4
0057
FF85
FF7D
FFC9
006D
FFA6
FF65
FF7D
007F
002F
FFA8
0014
000A
0037
FFA1
0081
FFBC
0045
FF54
FFD3
FFCB
000F
FF68
0067
FF9C
003F
006C
0016
0055
0039
FFCD
006E
FFB7
0019
0057
FFD5
FFBA
FFF2
0071
0099
0010
0039
008F
FF72
FFA1
004A
0073
007F
FFE2
FF6E
FFEA
FFA0
FFB6
0061
FF69
0074
FFE6
0022
FF6E
FFC6
FF6E
00A4
006D
FFF2
FF9E
009A
FFC9
FF88
0016
009D
FF50
FFA3
009C
FF8B
FF77
0019
0080
FFF8
00AF
0040
FF69
00AF
FFDF
FFB5
0015
FFBB
FF6D
FF4F
FFEE
0077
001A
00B1
FFB4
FFB2
FF87
FF89
FFB4
0068
0090
00A9
FFA1
0087
FFC3
FF77
0083
0030
FF89
FFE7
FFB5
0054
FFEF
00AE
FF62
FFCD
FFFA
0001
FFBF
0051
0085
009C
006C
007C
0012
0074
FFBA
FFDC
FFBF
FFF4
FFB4
00A4
FFBE
FF71
000A
FF63
FF76
FF9C
FFF3
FFE8
006A
0055
FFE6
FFC5
FFBF
0061
FF61
FF53
0069
FFF8
FF7D
FFA2
0099
0080
004A
FFFA
0007
00A9
00A5
FF9B
006E
FF95
FF9A
003E
FFDE
0099
FF6E
0004
0094
008F
FF86
FFD1
002A
FF87
00A6
0093
FF8A
FF7A
FF6D
0091
FF93
FFE2
FFEE
0023
FF68
FF9F
0099
0091
0064
FF56
FFC3
002D
FFB0
0091
002F
FF68
0091
00A2
FF6A
000B
FFBA
FFDA
FF8E
001C
00A2
0001
FF6C
002B
FFC7
007E
FFE9
FF93
FF92
005F
FFAD
005F
FF98
FFC1
FFF4
009D
0099
FF98
FFCE
FF84
0004
FFF2
008E
0099
FFD7
FFFD
008D
006D
FF50
FFC0
FFE4
FFA0
FF95
FF5C
0033
FFAC
FF61
FFA1
006B
007D
FFFA
FFE2
00AA
FF96
FF9B
FFB6
FF8C
FFD5
0092
0029
FFE1
009A
FF60
FF99
0017
0029
FF5D
FFDE
0035
0046
0031
FFC0
FF70
FFE6
FF7C
009F
FFF7
FFBF
005E
FFFF
FFBD
006F
0082
003D
FF5F
0018
005D
FF7F
FFA0
0088
FF56
005A
FFF7
FFED
FF51
0071
FFCE
000E
003F
0048
00A2
000B
FFDC
00A1
0032
FFB8
FF7B
007A
FFCF
0039
FFF6
FF95
0024
FF64
FFE1
0011
FFE9
0058
0074
0060
FF5C
FF94
000D
009A
0077
007A
FFBA
FFE7
FFF6
FF86
FF5A
009F
FFA4
FFA4
FF6C
0098
001C
003B
0092
FFC9
002B
FF5C
FF91
0076
005F
FFCB
FFD4
000C
FF4F
FFA4
FF99
FFA7
006D
FFB2
FF93
0002
0082
FFA4
FF6A
FFCD
0058
0012
0070
00A3
0068
0025
FFFE
FF5D
00AC
FFD7
FF85
003B
FFB3
001E
001F
FFED
0077
FFAD
FFEE
000D
003A
0065
FFDB
0034
FF84
0099
FFD7
0051
FF56
FF97
FFFB
0086
000A
0098
FFFA
FFFD
FF79
006B
FFA6
008E
0092
009D
0007
003F
0063
FF7D
0024
FF5B
FFFF
FF86
FF90
FFD0
FFE8
002C
FF69
0001
FF8F
001A
0031
0014
0055
FFC6
005E
FFE8
FFFA
0035
FF55
0037
002A
FFBD
FF6D
FF6F
0096
0043
FF7C
FFCD
0021
0077
FF5E
FFA3
008A
FF52
FF96
00A3
0028
FFAB
FF66
FF59
FFA5
0087
FFE2
004E
0094
FFDF
FF92
0006
0091
006C
FF66
0044
001A
0091
FF7A
000C
0087
FFE0
FFFA
FF68
FFB1
FFC2
009E
FFB3
FFF2
003D
FF88
FFFB
0055
0082
002D
003C
FF7B
009E
FF7E
0061
FFAD
009A
004E
005A
FF9C
FFEC
002A
0060
FF74
00A4
008A
FFAF
0072
0006
FFF2
FFBE
001D
0052
FFE0
002E
0047
004B
FF61
0080
FFF1
FFAC
FFA4
FFFA
0089
FFD5
0059
FF71
FFF8
00AE
0060
FF99
0001
FFA2
FFE0
0063
0060
FFA0
0096
0021
FFD5
0001
0025
0015
FFFB
0002
FF8D
006F
000F
FF7D
005E
0099
009F
FFD2
FF7F
0007
FF77
009A
FF90
FFA8
FFDF
FFD7
0069
FFF1
FF8B
FFAD
0003
FF83
0028
0017
004C
009B
0092
009E
FFA5
FF7D
FFBA
008C
00A7
007F
FF76
009F
FFE5
FF52
FFEC
FF5F
0010
FFC7
FFF7
0028
0083
0039
FFE9
0071
0090
FF79
000B
FFB4
FF5F
003C
0081
FF88
006F
007D
0093
FFAD
008F
FFC0
0013
FF61
FF5E
004E
FFEC
FFAA
FF92
003C
FF4F
006D
FF6B
FF93
FFD8
FFFB
FFCD
FFC0
00A5
0032
FF57
FFE7
0085
FFBA
FF70
005C
0026
0019
FF62
FF80
002B
FF98
0001
0010
FFB3
009F
0079
004F
FF6A
FF74
FFFD
FF88
00AA
FF87
FFFC
FFD0
0031
FF7C
FFE7
FFB0
008A
FF5D
0093
0076
FFB8
0067
FF5A
00A6
0009
FFBA
FFCF
FF66
00AE
FF5D
0037
FFEC
009F
FFA6
000B
FFFA
0048
FF67
FF93
FF9B
0054
FF92
001A
FF9B
0080
009D
0007
FFCC
FFA2
FF60
FFAE
0037
000C
009E
FFDB
0045
FFFC
0004
FFAE
FFF0
FFF6
0049
009C
FFC3
FF5E
FFFF
0010
FF8A
005C
00AC
009E
FF95
0085
0049
FFF0
000E
007C
FFF9
FFD3
FFFE
001C
FF92
008E
003E
002F
FF72
0025
FF7A
FF6B
000A
FFDE
0020
FF6E
FFE8
FF8D
00AD
0016
0042
FFC2
FF70
00A9
FFB4
FFE5
0035
FF57
006E
000D
FFB1
FF64
FF88
008C
0042
FFA7
FF66
0044
001A
FFDE
FFD0
FF9C
003C
00A7
FF8D
0022
FFE5
FFED
FFA9
0073
FFFB
000F
FFBB
FF8F
FF6D
004C
FF94
0043
FFD9
FFE2
FFF5
FFD1
FF72
FFBC
003A
003B
FFB4
FFF2
FF93
FF99
FF57
008D
FF99
FF9F
FFB2
FF7C
0031
FF69
FF7E
0033
FFC7
004A
0014
FFA9
0036
FF78
000D
FFEA
FFAE
0025
0084
00B1
0026
FFDE
FF9F
FFAA
FFF9
FFD1
0093
FFD1
FFD3
FFD7
0077
0035
0028
FFC5
0071
FF5C
0084
0005
FFDC
FFFF
003B
FF53
0084
FFED
FFC8
FF80
FFEB
FFFF
FFDE
003F
FFE4
00A4
0023
006D
FF75
FFDC
FFC6
0019
0080
FF6A
FF68
007C
FF9A
003C
000F
0076
FF7B
FF7D
0014
009E
FFE2
FFC3
0026
0099
0078
00B0
FF57
FF77
0027
0072
FFB4
FFA3
0066
FF63
FFD2
0002
0015
0051
FFCD
0028
001E
0011
0032
FFAB
FF6D
FF79
FF9E
0000
0079
0047
0067
FFCB
FFDE
FFDA
FF93
FF64
0020
00AE
FF8A
FF5F
0063
FFA8
0075
0048
009E
FFE0
0039
FFF4
002E
FFEE
FF92
0003
000A
006E
0054
003A
FF77
004E
0000
008C
0095
FF62
0072
FF5C
FFD1
000F
FF83
0057
FF52
FF8A
001D
004C
0094
0049
003D
FFDB
FF4F
FF79
000C
003E
FFE3
0052
0008
FF69
FF93
0079
0050
008C
FF78
00AE
FF99
FF53
00B0
FFB2
003C
FF8D
001C
008F
FFC0
003C
FF91
002C
FFC6
FF9A
FFBE
FF8E
008F
FFDC
FFA6
FFEE
FFC0
0057
00A7
FFEA
0080
0017
FF86
0044
0005
0035
008A
FFEB
008E
0059
FFFC
0025
FFC2
00AC
003B
FF5E
FFC2
002C
FF63
FF57
FFEE
FFC5
FFEA
FFAC
FF89
0043
0005
FF96
FFC0
0021
FF68
FF83
FF69
006F
005A
005A
004D
003C
FFF8
0032
FF5C
002B
0063
0000
FFCD
FFB1
0033
0044
0084
FFC8
0060
0016
0088
000A
0006
001C
0058
00A5
FF69
FF62
009B
000B
0029
FFFA
FF70
005F
0058
FFBD
FFBB
0078
FF68
0087
FFAA
0021
009B
003F
FFE2
0043
FFC9
FFB1
00B0
0059
0033
FFCD
FF60
FF5A
0013
005D
000D
0079
FF5A
FFD1
FFA3
FFED
FF68
00A1
FF9E
0096
FFE6
00AC
0013
0099
FF51
0058
008F
FF80
FF71
FFE5
009A
000F
000A
FF81
FF4F
006E
FF6E
002F
0093
FF99
003B
FF6B
0025
FF89
0054
FFB9
FFF3
0023
FF8B
0056
FFBA
003A
FF87
0043
FF7C
FFE6
FFA6
0058
FFAC
0087
008B
FF94
0028
FF6E
FFDA
004C
0039
002C
FFB3
FFD5
FF73
004E
0001
004A
FFA7
FFC2
FFC5
FF58
FFC8
006C
008D
0006
FFF0
FF5A
0087
FF53
009E
FFFC
FFC8
0096
FF57
001D
0011
FF9C
FFE7
0036
0051
FF4F
009B
FF89
FFA1
FFAC
FF5C
FF7A
00AD
FFBE
FF78
FF75
004E
007E
FFAA
FF56
FF9E
FF63
FF73
FFE8
FFA0
0006
FFA9
009C
0090
0018
FFCC
FFD6
FFE1
0051
FFEF
007F
009E
FFC6
0016
FF70
FF96
FFE1
FF98
0086
FF87
FFF0
0025
0044
FFD7
0083
0018
FFEB
FF66
FFF3
0072
0029
0076
FFFE
FF79
FF53
FFBA
0046
0067
FFB8
FFFE
FFE4
FFE0
FFA1
FF7F
FF94
FF62
FF95
FF52
002D
FFBF
00A8
FF93
FFC9
FFCE
FF52
0078
FF5A
009C
008B
000D
000F
0037
FFD8
0034
FF5F
FF62
FFF1
0012
008A
FF74
0072
FF99
FFDA
FFBF
FFDD
FF84
0001
006B
FFEB
FFFD
007C
0049
FFFD
FFAA
0089
001B
FF9D
FFAE
006C
FF5E
00AF
FF7D
0069
FFDB
FFFD
0087
FFE1
000D
FF60
FF4F
FFA5
0040
FF7A
FF77
FFE0
0034
004B
FF8E
FF6B
009C
FFAB
007D
0081
0061
FF8B
0072
0060
0022
FFC6
FFAC
FF7A
0003
001E
FFCE
FFF7
FFD0
0032
008E
FF89
FFD6
FF81
002C
0051
0099
FFB2
00A0
FF65
0025
FF63
008C
000B
003C
0076
FF84
FF5C
0086
FFBE
FF7C
FFF5
0023
FF5A
FFB0
FF5A
FFE4
008C
00AB
0031
FF88
0090
0006
FF85
0096
005B
0052
004A
FF96
FF99
0043
FF9D
FFEA
0064
0065
FFEF
0068
0078
0037
FFA0
FFB0
FFBE
FF78
FFB0
FF99
FFF0
0091
FF74
004E
0042
FF71
0096
0018
FFD0
005B
FFAA
0045
FF5D
0078
FFEE
0030
FF9D
003F
0061
FFF6
002A
FFF1
008C
FFFF
0079
006B
FFE0
FFA0
FFDF
0074
FF9F
0009
006D
FFCC
0032
FFA6
FF75
0068
FF72
FFAF
007E
FFCA
00A8
00AA
FFAE
FF5D
0049
FFEF
FF72
004A
FF5A
0083
FF80
FF7C
FF8D
00A3
0045
006B
FFDC
FFC6
FFA2
FFF9
0012
002F
FFAA
009F
FF8B
00A5
FF54
FFF9
FFC5
FFEE
0019
FFE9
FFE2
0053
0042
0076
FFA7
0027
001E
FFD2
FFFB
FFBE
FF81
FF9A
FF74
0041
0039
00A0
0051
FF61
0088
0081
FFEC
001E
00A9
000B
0090
FF6C
FF92
FFEB
001E
0070
00AD
FFD9
FF5F
006B
0025
FF95
FFFE
0056
0060
0000
FFBB
00A8
003A
FFDF
FFB2
0052
FFA5
FF8C
000B
FFB6
002E
FF78
0037
FFB3
FF4F
FF7C
009A
0082
FFA2
0063
0027
00A7
FFD3
0040
FF65
FFDB
00A5
000E
FFB5
FF79
0048
0033
FFD3
00A0
FF57
FFBA
0095
FFC0
FFA8
000C
0073
FF73
009D
0069
FF8F
004B
FFD7
FFDD
0064
00A4
FF7C
FFE4
FFF9
FFD4
FFCF
FF61
0042
FFE9
FF94
0070
006B
FFFB
FFB9
0031
FFB5
FFA2
0052
FF5D
FF70
FF51
FF85
FF67
00B0
FFB5
FF84
FFA4
009B
0007
FFD0
0084
FFDB
FFC5
FF98
FFD5
FFBF
003F
FFB5
001B
FF66
FF92
FFDF
009B
FFD4
003A
FFA9
FF7C
FF63
FFBB
FF87
FF8C
005C
FF54
0015
FFD5
0002
0016
FFBE
FFB7
0053
0084
FF93
FF71
008D
FFCB
0012
FFCE
FF7B
0020
0009
FF97
FFEF
0069
0020
FF71
0011
0048
0068
002E
FF85
004B
003F
FF57
FFE1
FFC5
003C
FF9B
0020
0093
006A
0096
00AA
FF52
002C
FFE1
0080
FFA8
00AB
0028
0068
FF6D
FF90
005C
FF56
0070
FF54
0038
FFD0
0028
0046
FFC8
FF75
FF67
0020
0007
0056
0003
FFE4
FFDC
FF58
FFC6
00A9
0085
FFC3
001F
007B
FFEB
FF55
FF69
0004
00A7
0045
FF68
FF92
0060
0079
002A
0033
FF59
0075
0066
FFAB
004A
FF9B
FF5D
FF96
FF8E
FFC6
FFE3
0003
FFF8
FFAF
FF59
0025
FFDB
FFB9
0082
0058
007F
FFFE
FF7D
0046
FF98
FFEB
FF66
0073
FF7B
008F
0081
FFF3
0057
002A
006C
FFE8
0065
FFF3
009C
FFFB
FFF3
0065
0072
0013
FF8E
FFF5
00A6
005A
006E
FF5A
FFF5
0034
0075
FF60
007D
0011
FF95
FFBF
FFB3
000B
FF61
FF87
006F
FF7E
FFA1
FFEF
0006
005E
FFED
0067
002A
FF77
FF86
FFEA
FFDB
0056
001D
FFD8
FF8B
FF9F
001B
FFE5
0005
FF8B
003A
007D
FFAA
FFFD
00A9
FFC5
0022
FF6F
0026
FF6E
00A3
004D
0066
0048
0020
FFEE
007F
00A2
0000
0099
001E
000E
FFF0
FF99
FF50
FFA4
0003
FFD5
FFEE
00AA
FFCB
FFEF
FF7E
FF60
0062
0019
005C
FF84
0019
FFA9
FFA0
FF53
FF7D
FFBC
FF78
00AC
FFBC
FF7D
FF95
001F
FF65
0081
00A4
FFA6
FFEE
FF56
0032
FFE1
FFAE
FF98
0037
FFE2
FF8E
0043
0017
007F
FF78
0065
003E
FF77
0045
FFEB
009E
FF81
0033
FFD6
00A2
FFC4
00A4
008E
FFAF
006C
00B0
FFA8
FFEA
0007
FFB7
FF54
FF9D
FFB3
FFEC
FF8B
0084
0049
FF6D
0035
0037
00A2
FF50
FFA7
0098
0099
004E
005E
FF6F
0005
FFA1
FF8F
006E
FF7F
FFF5
009C
FF91
00AA
00AF
0014
FF8B
FFBF
FFE5
FFBC
FFB2
00A8
FF85
0053
FF4F
0022
0094
FFB5
FF90
0036
004B
0043
FFC0
FFA8
00A2
0096
FFF1
007B
FFEF
FFE5
FF86
FFE6
000D
FF57
FFEC
0064
0040
0030
0091
FF55
0014
0066
000F
FFC2
FF7F
0089
FFF6
0086
001E
003E
006C
0038
FFDC
0005
006B
FFD3
FFD8
FF71
0093
FF6F
0035
FFE1
FFDF
0040
FF66
0021
0060
0074
FF8B
008D
0037
0087
FFFB
000F
0095
008E
FFEE
FFB0
FFDA
FFD8
FFB4
FFAE
0080
FF67
003F
FF8C
FFC9
FF64
FFAE
005F
0089
FF9D
FFF3
FFF5
0085
005D
0005
003D
007B
FF52
FFDE
0090
0055
000F
000B
FFCA
0007
0037
FFE3
004C
0080
FF86
FFEF
FFDF
0042
FFA7
0032
0086
FFE3
0092
00AF
FF74
FFA1
00A0
00A3
FF71
FF54
FF88
00B0
FF8E
0001
007C
FF56
0025
FFB1
0081
FFB3
0042
003E
FF9D
FF5B
FFE0
FFB5
006E
006B
FFF1
0026
0025
0074
FFE5
FFB0
FFAD
000D
FFEE
FFEB
FF6F
004E
FF9A
FF95
FFE1
FF9F
001E
FFD2
FFEE
000D
FF97
FF86
0087
FFE8
FFE1
FF5B
FFFF
0013
0015
0049
FF8E
FFA8
006E
009F
FF7F
FFFF
FF9B
FF64
FFC2
FF82
004A
000C
FF82
FF52
006D
FF8D
0026
FFC6
001E
FFBF
FF6D
FF9E
FF91
FFE6
0038
FFAC
FF53
0007
0026
00A4
0020
FFF6
001A
0098
0074
FFC1
FFA3
FFAC
0002
0057
0001
FF67
004F
006D
FFB5
003A
FFE6
008A
007A
0009
0044
0088
FFFE
FFBE
005A
FF9D
FFD8
0082
0050
FFDE
FF9B
FFCD
FFB3
FF8D
0056
FFA8
FFF0
FFD8
00AB
FFD9
FF6B
FF6F
0020
0023
FFE3
FFE8
FF62
0006
0002
FF84
FF73
FF7A
FF72
0027
FF94
FFA8
FF8C
00A2
007E
FFA0
FFC3
FF99
FFFD
FF56
003D
0008
008D
FF89
006C
0068
FF7C
FFDC
FF8B
FFA9
FFAC
0014
FFE1
009F
FF7B
00A8
FFA0
0061
FFC7
FF81
007F
FFBC
0038
0018
FFF6
FFFF
0052
FF6E
003C
008C
FF63
FF81
004D
FFEA
FFDE
FF7F
0002
FF7C
FFF8
005E
FFAA
FFF9
00AF
0042
0079
FFE2
005F
FF5D
FF7A
FF97
FFDD
007B
FFC9
0037
004A
001F
FFCD
001B
FFC8
FF6C
00AF
FF7C
FF68
0086
FFBA
0035
FFC3
FFD9
FFAC
FFC8
FFE0
004E
0004
009D
FF5D
0001
001E
0095
FF60
001A
007D
FFA4
0085
FF55
0052
009A
0038
FFEA
FF5F
0095
FFF5
FF59
0043
FFFA
FF7B
FF9B
FF66
001A
002B
0002
0070
0080
0029
FF53
0045
FFE3
0017
0035
FFCB
0094
FF7E
003D
FF50
0097
FF77
FF70
FFC5
FFD3
FF9B
001E
FFEC
FF5B
FFC0
006E
0043
0050
0046
FFBD
FF72
FFAF
0076
00AA
FFFE
FF52
FF80
FFC1
001C
FF69
009D
FFD0
0092
0064
005B
0026
002D
0031
002E
0013
00AD
0052
0062
0084
FF9B
FF6C
FFFA
0005
0075
FFEC
0019
000A
FF5C
0029
0074
FF87
0021
0021
FF89
FF7A
00AA
FFDA
FF9F
FF8B
003B
0027
0033
FF6E
008C
FFD9
FFBE
FFF3
FFD9
0081
0098
FFBA
0081
0064
0099
FFA6
001B
FFB0
0073
FF51
0017
FFC7
FFC1
0033
007D
0027
007D
FFAC
0007
FFEE
FF53
0014
0039
0021
0054
0019
FF66
FF78
0022
FFB0
FF6B
FFE7
0013
FFC3
004E
0033
FFC5
005A
0035
0031
0013
FF53
0046
FFD4
009D
0071
001F
FFA8
FF97
FFC7
FFF8
FFB8
0005
FF89
00A9
FF75
0099
0093
0009
0050
FFE9
002E
FFC7
FFB9
001C
FFFF
001C
FFB4
FFD1
FF6C
FF61
FFA9
FF69
FF73
006F
FF5C
0038
FFAF
0084
FFFB
FFBB
0006
FFD6
0017
FF77
00B0
FFE6
FFCA
004B
FFD0
0076
FFF0
004E
FF75
007B
0054
FF9A
FF82
FFBF
00A9
FFAA
FFF0
FF59
FFDC
0019
00A1
0006
0071
0011
FF5D
FFBE
001B
00A0
007F
FFA0
FF9D
FF96
0096
007D
0062
FFDA
0002
FFF3
FFA9
0002
FF59
FF7D
0089
0059
FFE5
0006
FFD2
0055
0065
005D
004F
FF97
FFC7
FFF5
FFC4
005A
FFC3
FF80
FFDC
00AA
FF9F
0028
FFE8
FF68
FFFC
0048
0005
0084
FFB5
FF6D
009B
FFD5
001B
0068
FFC2
004D
FF7F
FFB6
FF82
006E
FF9E
004D
009D
000A
000E
FFF2
FFC2
FFF7
0024
00AC
009B
0080
008A
FFF5
0038
008C
FFDA
00A4
FFE2
0024
004A
00A0
FFA5
0057
0007
FFAE
0062
0013
0039
FFC1
FFF9
002A
FFDE
FF95
00A4
0004
0053
FFE0
FFCD
FFDF
FFE0
0010
000F
FFFF
FF7E
FFFF
FF8B
FF7B
0099
0025
0039
FFDD
0091
0031
005F
FFD1
00A3
0072
007E
FF8C
FFAF
FFB4
FFAF
007E
FF5A
FF6A
FFB0
FF96
FFA1
006A
0016
FF51
FFE7
FFDF
FF77
003E
0048
004E
0051
FF4F
00A1
006F
008F
FF54
009A
006E
0078
FF70
0055
00A3
003F
0019
009E
FFEC
0023
FFF8
009A
FF6A
0000
0042
0068
001D
0091
009D
FF65
FFDD
FF57
FFC3
000D
0092
007B
FF7C
FF70
0020
000B
FFAD
008E
0098
FFDD
008A
FFD7
0054
FFF7
FF7A
0098
FFF0
0053
FFD1
FF55
FF72
FFFF
0043
FFC5
0045
0046
0048
FFFD
0093
FFFC
FFEE
FF95
FFBC
FF5E
002F
FFA7
FFBB
0060
FFC3
FFA5
FF8B
0061
FF7D
FFF0
0002
0042
002F
006E
FF5F
FFB8
FFB2
FF82
FFB5
FFBD
0008
003A
FFD6
004E
FFC6
FFB6
000F
FF57
FF6B
FFE3
009D
004F
FF6E
007B
0052
0027
0072
FFDE
FF9D
0004
0011
000E
0017
009F
008F
0085
006B
009D
FF72
FFAD
FFFE
007B
0002
0058
FF80
FFA8
0052
FF89
FFCB
FFAD
FFCB
004A
FFD1
0014
FF72
006C
FFD2
0035
0050
FF99
0088
0029
FFE7
FF8F
009D
005A
FF98
FFC6
006E
0045
005E
FFEB
004D
FFD8
FF9A
002F
00A9
FFBD
FFF2
003E
000F
007A
005D
FF63
00B1
005A
0081
0036
007E
FF77
FFCA
0086
FF96
FF6A
0066
0077
FF88
007E
0042
0007
0075
FFE3
FF93
FFB4
0002
000B
006C
0067
001D
0064
FF93
FF60
0085
FF69
FFA6
0045
FFE0
0085
FFB8
FF53
FFB9
001C
FFD4
000C
0086
0092
FFAD
FFF3
0011
009F
00B1
FFA2
0051
FFD5
FF52
FF52
FFF2
FFFC
FF57
0042
FFB7
0015
FFB9
FF8A
FFDF
FFA1
000C
FF95
0003
FF86
003D
005A
FF76
FFF5
FF68
0023
FFAC
000A
0006
0097
0011
001D
FFDD
009F
0062
FFB4
007A
FFE8
0075
0073
FF92
0047
FFB6
FFB8
FFB8
0050
FFA0
FF4F
004C
FF8B
FF74
FFA3
FFD5
FFF7
FF5E
00A7
004D
FFC1
FFC0
FFEE
002D
FF83
FF92
0080
FFAA
FFD6
0084
003A
FFC8
0041
FF56
0054
FFFB
006F
00A1
0097
0091
0004
FFCE
FFF4
0043
0088
FF98
0094
0070
00AA
0087
FFB2
FF74
FF76
FFB6
0029
006C
008E
002C
FF51
FF91
FF72
FFD0
0000
FF5E
FFCA
FF8E
0034
FFF3
FFFE
FFE6
00A2
FF9B
0006
0054
0014
0098
FFD5
FFF3
FF6E
0027
FFB5
FF88
0010
000B
FF6A
0046
002C
FF92
FFF5
004E
000A
FFDB
FFC1
0027
009C
003D
FF69
FFF2
008B
FF70
00AD
009F
FF6A
009A
FFCF
007A
FFE3
FFEB
0030
0061
FF5B
0021
FF91
FFC9
FFCA
FFF5
FFC5
FF75
FF82
FF5A
FFF5
00A1
FF78
009E
0053
0031
0034
0074
FF75
0002
0046
001F
0076
FF68
0044
000C
FFD5
FFC7
002B
008B
FFFF
0073
FFDD
FF73
FF64
FF61
FFD5
FFC6
004D
0056
FF61
FF9D
FFB0
0011
FF82
FF7E
009D
006C
FF8F
FFDF
FFCD
0067
0004
FF7C
0055
FFDB
FFAC
FFD4
FFFF
FFC8
FFA4
FFDC
FF55
0061
FF8B
FF5E
0037
0061
006F
FFFE
FF97
0054
0047
FFA6
008F
FF74
00AB
0080
0043
009C
004F
FF92
FFEB
FF68
FFD9
0056
FFD8
FFC4
0022
0084
FF60
FFD7
FF87
0045
FF74
003A
FFB4
FF95
009B
FF55
FFEA
FF56
FFFA
0000
FFC1
FF7E
FFD4
003D
0064
000B
0020
FF96
FFB5
FF88
FFA7
FF9E
0007
0016
009E
FF94
0032
0071
0015
FFA9
FFAC
FF5D
FFBB
0057
FF5F
FF9C
0049
0064
FFF0
0046
FFD8
FF87
FFDC
001C
009F
FF67
0003
FFC3
0003
FF57
FFBE
0071
0013
FFEE
FFB4
FFB8
FFD7
0077
00A6
FFEA
FFDA
007B
FFE6
0012
FFA1
0056
000B
006E
0064
FF9B
004C
006A
FFC9
FF8C
FF50
FFEF
FFCC
0013
FF91
0080
FFAA
FF9F
FFF9
0000
FF9B
FFAF
FF8B
004D
0060
FFF3
004C
0054
FF80
00A5
0072
FF97
FF91
FF7B
FF80
0058
FFF5
0064
0057
0025
0042
FF55
FFBD
0031
FF52
FF5A
007D
0041
FFAD
0043
0068
FFBB
FF5B
009A
FFC9
FF74
FFFD
005F
FF9D
FFAE
FFA5
00AE
FF95
001B
0097
FF83
00A7
009F
0088
FF9B
0030
005D
00AC
FF8F
005E
FFC7
FF8D
FFE4
0068
FFF4
000D
00B0
FFDC
0029
FFD0
FFDA
0045
009B
000F
005F
FF6E
FF9A
0001
FF56
FFA8
0006
FF54
FFAC
0005
001A
0097
0034
FFE2
0099
0065
FF96
FF7D
003E
0015
0067
0055
002C
00AD
000C
FF77
0074
FFA8
0062
00A2
0046
0022
FFF2
FFD0
FFCC
0030
0059
003F
FF95
FFFE
0067
FFF7
000D
0060
0039
FFE0
008C
FF88
00B0
FF79
FF54
008A
FFA6
0051
006E
007F
00AE
FFB7
004B
FF78
FFDF
007B
FFD1
0020
0001
0034
00A8
FF62
001A
0081
FFF9
FF6A
0015
FFC4
FF86
007C
0008
009A
006D
0044
FF50
FFE6
FF95
0092
FF8D
FFB4
0006
FFAC
FF99
0023
FF6E
FF63
FFD3
004E
0013
FFE5
0017
FFD0
009B
FF62
003E
008B
006C
FF90
FFB8
004D
FF6D
006F
004E
0051
FF72
004D
0040
0075
FF5D
FF57
FFD3
FF83
0015
0094
FFDA
007A
FF4F
FF8A
FF59
FFC3
0091
FF71
0026
FFEF
009C
FF7A
FF9A
FF59
FFE9
FFB1
0083
0025
0028
000B
FF6F
FFEC
00B1
0077
008C
0073
FF73
FF9F
FF50
FFBA
FF75
FFF6
003F
0085
0058
009C
FF62
FF53
0039
FFB5
FFA9
FFC4
FFAE
0004
FFEB
0004
003D
FFD8
FFA8
FF8A
FFCB
0056
005B
003B
FFA2
001F
0019
FFFA
0012
FFFD
0017
004C
FF76
0059
FF7F
FF66
00A9
00A2
FF64
FFEC
FF91
FFFB
0075
00A0
0030
FFCC
0025
FFBD
0091
0083
0015
FFC2
FFB7
FF5A
0070
FFEE
FFC2
FFF6
0071
FF7B
007F
008D
009E
FFDC
FF9C
FFD3
FFC5
FF8D
0026
FFF8
0082
FF5A
0033
005D
005C
0089
0051
0098
FFC5
0001
FF54
FF51
FFA4
FF72
FFAB
FF8D
FF59
0091
FF52
0054
FF85
0092
008B
0037
003D
FF51
00AC
0086
008C
0038
FFC9
008C
FFB6
0016
FF72
0096
FF81
FF9E
0015
005E
002A
FFA1
FF4F
005B
00AC
006E
FFF2
008F
FFE0
0009
FFF8
FFED
0062
0009
FFBF
FFAA
FF5C
001E
FFA0
FF83
0037
0040
0059
0001
008C
009B
006D
0030
FFBA
00AB
FFB0
FF97
FFEB
FF63
00AA
001F
0014
0037
FFFF
FF5A
0028
004D
FFE2
005B
FF9F
FF9D
FF88
FFD3
007B
0074
FFD6
0020
004E
FFA4
FF8A
00A7
002A
00AB
FFC6
0048
FF9E
FFAB
0004
FFC0
FF8A
FFAC
FF5B
0049
FFFD
FF70
FF8C
FF73
0028
FF70
005A
FF56
FFA7
008B
004E
FF69
0072
FFFE
007B
0024
0041
00AF
FFA1
002C
FFF2
FF5D
FF54
FF79
0035
0018
0013
FF5A
FFF5
0097
FFDC
002C
0063
0065
0007
007F
FFD9
008A
FFA4
FFB2
FF61
0069
FFE3
FFA0
FFA1
008E
0076
0013
0029
FFF7
FFDA
0093
FF7B
FFE3
FFC9
FFFF
FFF1
0007
FF80
0005
FFA5
FF90
FF66
005D
FFE6
002D
0051
0040
FFF6
FFD8
FFD4
0032
FFFE
007C
0085
FF8B
FF7F
002E
FFB9
FF55
008A
FF9F
0098
004D
005D
FF96
FFA2
0008
FF8C
FFBB
FFC1
FF87
FF97
0066
FF8A
FF59
002E
00A9
FFC4
FF79
0019
0090
0065
002B
FFBE
000F
FF6F
003F
0050
00A5
FFAB
FF55
0010
0049
0067
FF93
FFAB
0004
FFC4
0080
FFF7
006A
001D
0061
FFC5
0076
FFB0
0010
FF9B
FFF7
FFC0
FFAD
00A6
FF87
0066
00AC
FF56
0047
FFA8
FF5D
FFDE
009A
FF53
001F
0000
0084
FF6C
0040
0040
003C
009D
0073
FF5E
FFF6
FFDC
FFBD
FFEF
FFD7
FFE8
00AA
FF6E
0096
FFF9
002C
0075
FFCF
FFE7
FFE0
FFD4
0097
0075
FF75
FF75
FFE6
FF72
002A
FF82
0008
FF51
FFBF
003F
FFFA
00AA
0085
FFCE
FF5F
007B
0092
0072
FF7C
00B1
FFAA
0050
0091
FFA2
0091
FFBC
00A9
FFB2
00A1
FF62
004A
000B
FFF8
FF9E
0049
FF92
0013
FFA8
00A2
FF59
FF95
FFA5
FFE2
FFA1
FFFD
0084
004B
001C
FF6E
0045
FF8A
0066
FFA7
FFE3
FFCB
007F
FF7C
0017
FF81
0049
0090
FFE9
FFFC
0098
0007
FFFC
001C
0043
FF75
0072
FFE9
FF68
0066
FFD4
FF72
002F
0087
008A
00A2
0082
FF4F
FFD6
0071
FFD1
0024
0026
FFD0
008F
0001
FFF4
00B0
FFFE
FF8E
0005
006F
0062
0066
004A
FFA9
0080
008C
FF94
FF7D
00A9
0083
008B
0089
000F
0034
0010
FF61
0057
0002
0034
0001
FFFD
FF8C
FFB2
FF87
FF94
00A8
FF85
FFAE
0020
0027
FF85
0068
0065
FFA3
FFB5
009B
0074
0046
FF6C
FFE3
0015
FF91
FFEE
0024
FFC3
0064
0079
FFC1
0078
FF73
0078
FF85
FF6C
0032
FFF6
0091
FFCF
FFB4
0000
FFF0
FFC9
0045
005C
007D
00A8
FFAD
004D
FFDA
003F
FFF7
00AF
0051
00A1
0077
008F
0070
FFF2
FFA8
FFD2
FF56
0009
0002
0009
00A8
0092
FF88
FFD1
FFE5
FFCF
006A
0009
001A
007D
006D
FF7E
004C
FFE9
FFB7
FF60
FFFB
FFCD
FFA8
0045
0060
FFA5
FF60
007C
FF52
009B
002D
FFC1
FFA6
FF52
FFA2
FF7F
0028
FF8A
000A
0020
FFB8
FF5B
FF5C
FF58
0055
FFBF
0069
FFE8
FFEF
0005
004C
FFB0
FF7A
0014
FFC3
FFEC
0034
FFFE
002B
0010
0055
0049
000C
003F
0085
FFE8
FFE1
005E
001D
FF68
008B
FF5A
0058
005C
00A1
FF62
0022
FFE6
FFC4
FF6F
0016
FFF9
FF74
0028
0054
005F
0090
FFE0
00A1
0082
FFB8
FF87
FFE9
FFDD
001B
001E
0059
0004
FF74
007F
FFBD
00A7
FF78
00A3
FF6F
FFA1
FF5F
0049
007C
FFE9
0098
0020
002E
007B
FFB8
FFCC
0090
008E
00A9
008F
FF7C
0073
FFE0
00AE
FFF6
0013
000B
FFC1
FF69
008C
006B
FF80
0062
002D
FFE0
FFA9
0080
0047
0011
0027
FF6F
FFF7
FF93
FF99
0039
0092
FFDE
FF98
0035
0084
0058
0083
000D
0059
FF80
FFCA
FFD9
0004
0098
0085
FF7E
FF8C
FFCE
FFB6
0029
008F
00A4
0036
0078
0009
FF99
0009
0014
0056
FF9D
FFD1
FFD0
00A3
FFEC
005A
0059
FFAD
0019
008C
FFF7
009E
FF9B
FF69
008B
007B
00AF
0040
009B
0074
007A
0019
FFD6
009A
FFE8
000E
FFED
0017
FFF6
FF60
0088
FFEC
0020
FF80
FF50
FFA6
0049
FF72
0091
FF9B
FF97
FF8F
FF54
0060
0085
0028
FF91
FFB4
FFF7
00A1
FFA6
0052
FFEB
FFB8
FFF0
FF68
006A
FFA5
0050
FF67
00A1
FF93
0088
006E
00A6
FFF8
0051
FFD2
FF90
FFEC
FF89
00AB
FF71
0020
002D
000E
003A
FF78
0014
FFB5
009C
005D
00A8
FF5C
FFB4
FF94
FF53
FFA5
003F
FFA1
0003
008A
0045
FFDB
FFD3
FFF0
FF8D
0030
FFD0
007D
005B
0027
FFD0
FF99
0062
FFFB
FF9E
FF94
FF89
0062
FFA0
0009
FFEF
001C
0086
0082
FFEF
FF54
FFE6
0026
0014
0036
FF85
0034
FF8F
0059
FFC7
004A
FF60
FFDF
0049
FF9F
0069
002E
001F
FFCC
FFFA
0023
FFF6
0046
FFE8
FF96
FF9B
FF51
FFB9
0058
0068
FF96
00A3
0001
0094
0049
004F
FF6D
FF9D
FF52
004D
FFC9
0066
FFC7
0071
FF7D
FF8C
FFC8
FFE0
FFCA
005E
FF71
FFCB
0078
FF66
009D
00AD
FF6E
FFB6
FFD3
0062
0022
0033
005B
FF78
0076
0049
001B
008A
0047
FF96
FFE7
FFFE
FF62
00A1
FF7C
0046
0002
FF58
0097
007D
0009
FFA0
FF7A
FFD0
FFA9
0002
00A5
001B
008A
0036
FFF7
007E
FFF6
0083
FFB6
FF7C
007E
001F
008A
009B
FF62
0000
FFD4
002D
0068
FFB2
0014
004A
FF7E
006F
0026
009F
FFC7
FF75
0002
FF6D
00A7
FF5C
005A
0009
FFD1
FF66
002B
001E
FFB2
0092
FFBB
FFEE
0010
FF72
0099
FFD3
FF6B
FFD8
0024
0005
0045
FF62
FFB4
0071
FF6B
007E
FF6F
0077
FFCF
0028
FF85
FF66
FF9B
FF7C
FFBD
0005
001F
0067
0037
0027
FFE1
FFF7
FFE2
0079
FFA0
FF51
0036
FF96
008A
007F
FF6A
FF74
FFFE
0027
FFB0
004D
0022
FFC2
FF58
0059
FF9B
0077
FFE4
001B
0084
0081
FFD2
FF99
0062
FFE8
FF93
008F
FF95
FF58
FF56
002B
0039
FFBD
FFC0
FFC7
0040
FF63
0098
FF9E
00B1
FF8B
0060
FF9E
FF6B
0085
007F
FFDE
0048
0014
007D
FFBE
0008
FFFB
FFCC
008B
FF89
FF84
001B
0038
FF94
FFD9
009E
FFA6
003C
0055
FFEE
009B
0054
FFF1
0019
0044
0021
0086
FFCD
FFB9
FF9A
FF5C
FF5E
0083
003F
0039
0029
007C
FFF9
0083
FFCE
0097
0046
FFAA
0017
000C
FF80
0020
FFBE
FF61
009F
0032
0086
003E
FFCD
0005
003E
00A3
FFA9
0085
0096
003C
0099
FFDC
00A1
0048
FF5E
0090
FFFA
FFF2
0018
FF84
FFF5
0075
FF54
FFAF
FF50
FFE2
0051
006A
009E
0026
FFA9
0096
0062
001A
0045
0097
004B
FFD1
004C
FF5D
FFD8
FFDF
FF8A
FF57
FF7E
0037
006B
00AD
FFCA
0023
009B
FF8A
004D
005A
FF6E
0080
006F
FF5A
FF6F
FF60
FFC5
0003
000B
FFAE
0092
FFD1
FF5F
FFB9
000B
FFDF
FFB0
FF7D
0071
00B0
FFC4
FFD6
002A
004D
FFDA
0090
0015
FFEE
0034
00A1
0068
FF5D
FFC5
FFF6
FFBE
0047
0074
0052
00AE
FFAF
0085
005F
FFCF
0053
FF74
0067
000B
FFB6
0037
0032
FF99
FF59
FFE8
0019
0086
0098
000A
005A
FFEA
0057
FF97
FFD2
0030
FF55
004F
0077
FFDC
FFEE
007D
0062
FFB5
FFC2
003F
0016
FF88
FFBD
008E
0043
00AC
005F
009D
FF9B
0060
FF56
003D
FFF5
FFCA
0081
007E
FF57
0027
FFD1
FFE2
0076
FFBD
009D
FF8E
003A
003D
FFA8
FFC2
0077
005D
FFC3
000C
FF65
FF99
FFFB
FF6D
007A
004D
009D
0045
009C
0013
0024
00A9
0032
FF5A
004F
0090
0069
001E
003D
00AE
FF6F
003B
FFB3
0032
0026
FF85
FF98
002B
FF7C
FFAD
0077
FFC3
FFFC
009C
FF9F
FFD9
0026
005B
008E
0093
0062
FFA0
FF57
FFD7
FF81
004B
0039
FF5E
0077
FFA7
FFE8
003C
FFE7
FFEB
FF66
FFDD
005E
0093
FFE1
FFE5
0048
009D
FFAD
FFEB
0069
0027
FF76
002D
FF91
0004
000A
0085
FFF3
FFB2
FFA1
0085
FF8B
FFE6
FF91
0061
FFF7
FFCB
FFCF
007D
0013
004D
008D
008F
FFC3
00A0
FF57
FFD4
008C
FFB0
FFB0
FFBA
0028
FFEA
0050
008C
003E
FF97
0099
FFAC
FF84
FF6F
0016
FF77
FF80
FFB9
FFB3
0025
0070
005D
FFAC
FFA6
00A5
FF52
0087
FF95
009F
FFC8
FFEB
0049
001F
FFBF
0013
0052
FF5E
FF53
FFF1
FF7D
003A
FF9B
FFE8
FF95
0011
FF78
FF57
FF61
00A1
FF81
004A
FF67
FF75
0003
FFF4
00A0
009E
0063
0024
FFF0
FFCD
009F
0025
001C
FFA1
FF5F
009E
FFBE
FFEC
FF77
0078
FF58
0076
FF80
0089
0052
FF89
0017
FFBE
FF8E
007F
FFDE
FFDC
FF8B
FFD7
0084
FFCF
00A0
009E
FF82
FF8E
0081
FFDA
FF50
FFB0
0023
006A
FF7E
FF76
0096
0059
0020
005F
FFE7
005C
FFD3
FFA5
0051
FFE4
00AB
FFCB
0096
009A
FFA4
006A
FFE8
0094
FFEE
0057
FFF4
FF9F
FF95
FFE6
005B
0025
0043
FFB3
FFF9
FF5E
0071
00AE
FFDF
FF53
FF8B
0036
0028
0066
FFA9
005E
0043
FFC1
0010
FF83
FFEF
0087
FFE4
0078
0020
FF93
001D
0002
FFDC
FF79
FFE2
FF68
FF72
FFE2
FFBB
0097
FFD4
005B
000B
0048
FFAB
009D
000B
0076
FFD0
FF72
003E
FF51
FFF7
FF93
002D
00AA
FFF3
0071
0003
FFFF
0099
008A
0065
FFB8
0010
FF9E
FFEC
FFFA
0076
008C
FFE2
FF55
0080
FF8C
002B
FF57
FFDC
00AC
FF72
FFE5
FFBC
0090
0083
FFA3
FF6B
002D
FFC6
003D
FF5A
FF7E
0042
FF9A
007F
FF63
FF9B
00B1
FFE8
0048
FF8F
0027
0050
FFBE
0075
0025
FFD9
0014
001B
FF89
FFDD
FFC8
FFDD
005D
FFFA
009C
FFB7
FFE2
0066
0010
0011
FF62
FFDC
FFAF
00B1
FFBC
0088
003F
FFC8
000F
0079
0088
FF88
FFC7
FFC6
FF5E
0023
007E
FFD6
0055
002D
FFD4
FF81
004A
007E
0042
FF55
FF9B
FF67
0019
005B
FF76
0078
0014
0043
00A7
FF6C
008E
FF7B
FFDA
007D
0090
0002
0021
004A
0076
FF7A
006E
FFF9
FFEE
FFE5
0003
009E
0011
00A1
FF8F
0050
006F
0040
0026
0017
0080
0072
FF7A
007C
FFE2
FFA9
0083
FFE8
006D
FFAC
FF50
FFFE
FF72
005A
FFB1
FFEC
FF6E
FFB4
0064
FF84
0034
0094
0040
006E
FF75
FFA8
008C
004C
0032
003A
FFE2
FF5E
0065
003F
FFF6
008E
FFC6
FFB7
0084
0069
0005
FF7D
FF9B
0037
FFD7
0077
00A0
006C
FFD5
0066
FFCB
FF8A
FF5A
FFD7
008F
FFA3
FF98
00A7
FF58
0065
FFC1
FF5C
0094
FF80
0012
FFB0
FF66
FF60
FF78
FF68
005C
FFFB
FFC8
FFE3
0098
0092
004D
0088
FFC0
FFD6
0028
002C
FFFA
FFDD
00AC
0072
FFE9
0051
FFAE
FF72
FFCC
FFDE
FF55
0070
FFCE
001D
FF69
FF8D
008A
0027
00A0
00B1
FFD3
FFB9
007F
00B1
002E
0069
0064
FFCD
001A
0076
0043
FF56
FFC6
FF82
FFA1
0090
FF5C
FF9D
FFBC
0029
000C
FF9C
FF89
FFA3
0001
FFAF
009F
FFF3
FF63
0051
FFC3
0036
FFB2
0019
0061
0098
FFAB
FFC5
FFF3
0098
008E
FF6F
FF7D
FFFE
FF74
FFC9
FF83
0030
009F
00B0
FFD4
0023
007E
FF78
0043
FFE0
FF98
FFDE
FF6A
0045
FFA8
FFBD
FF7A
0081
FFFE
001A
0019
FFE0
FF93
0057
FF7C
FF73
004B
FF99
FFBB
FFF7
FFEE
004A
002C
0033
004C
FFB6
FFC1
FFEA
FFBC
00AC
006F
FF89
FF51
FF5E
FFA5
FF77
000C
007F
0054
FF9B
FFDC
0003
006E
0078
0091
0003
0045
FF76
0017
FFA7
FFE8
0030
FFAA
FF61
FF52
FF56
FF52
FF76
FFA4
FF9D
00AD
FFBB
FF7C
0010
007F
003F
FFB8
0016
004C
0051
003B
0084
0083
001C
FFE7
0032
0071
FF51
00AF
FF90
FFF5
0084
FF9E
FFF8
FF7E
FFDB
FF8D
FFD0
FFD3
00AF
00B0
FF77
0050
FF61
FF59
FF74
00A5
009C
FF93
FF88
FFA4
0006
0019
FF9D
005B
FFBC
0096
0038
FFE9
0067
0071
FFB6
FFC7
009B
FF89
FF5E
FFF0
006B
0060
0095
000C
FF72
001F
0063
FF70
FF8C
FF53
0021
0089
003D
00AB
FF65
008F
006F
FFBE
00A8
FFB5
008A
0087
005B
0017
FF79
000B
FFCD
0068
005C
0092
FF54
006E
009C
0067
FF7D
FF6B
FF56
002E
002E
00AD
FFDC
FFC4
002C
0074
009B
006C
FFE6
0030
007E
FFFD
FF9C
FF8B
FF4F
004D
FF76
FFA5
FFB8
0015
FFDC
003E
FF62
FF7B
0000
FFC6
FFB8
FF66
008C
0044
FF7A
FF66
00A8
0040
FFE3
0048
005B
0063
FFF8
FFE7
FF53
0097
0025
FF97
0095
0093
00AE
0085
00B1
FFA5
0079
0073
FFA1
FF72
00AA
FFB8
0084
FF50
FF56
FFF4
FFA3
0043
0017
FF6A
FF88
FFD8
FF90
0068
FFE2
FF70
FFFA
FF6F
FF7C
FFA4
0080
0097
0074
FFC5
FFAF
0011
004F
00AF
FF7D
FF60
0045
0076
007B
003F
00A1
0004
0093
00A6
007B
FFBD
FF94
0011
FFEF
0086
FF72
FFAA
0059
FF70
FFC0
FFD8
002B
FF87
0080
FFED
0094
FFF5
FFB0
FF81
FF50
000B
FF75
FFDA
0020
FFB0
FF8D
0061
009E
FF72
FF86
00A3
FF5C
00A9
FF50
0085
FFBC
009C
FFBF
0037
FF6B
FFA5
0061
000A
0098
FFE7
0083
FFEE
00AA
00A3
FFC3
0089
007B
FF99
002C
FF68
0077
FF8D
FF68
FFDD
001B
007E
00A8
FFEB
FF64
0058
0017
FFEE
FFBC
0001
FFC7
005B
0010
0086
000F
FFA3
007D
0014
FF98
002C
FFCE
007A
FFEF
0050
FF71
FFDB
00AB
006D
FF87
FFB1
FFC4
0035
005B
0059
0004
006E
FFEA
FF7B
0017
00A0
0068
001C
0034
0099
FFE7
FFC4
00A9
0081
FFC1
FFF3
FFE2
FF84
00A2
FFDE
0085
FF92
0011
FF57
005E
001D
002D
FF61
FF99
FF69
FFB5
002D
0017
0028
0011
FFAF
FFA5
FF7F
007C
0029
FF91
FF8D
0084
0056
0039
FFDF
FFAC
00AA
0069
FFBA
007B
005C
FFB8
FFE6
FF91
FF76
004F
FFAE
0072
00B0
FF6A
FFF6
006B
0066
005C
FFCA
FFF0
0022
00A8
FFC3
0096
FFAE
00AD
003C
FFF3
0028
FFAF
FFB0
FF77
FF77
FFCA
005D
0026
FF73
007D
0024
00A3
003C
FF8D
FFF7
0035
FF59
FF54
FF7D
FFA8
FFE7
FFFC
FF80
003E
0022
FFB7
FF53
FF6A
FFDA
FF85
FFD4
002D
0011
FFA1
FFC9
0028
0080
005A
0013
FFCF
FFD0
0087
FF5D
00AD
003A
0040
FF5C
0025
FFFB
FF74
FFB1
008A
0012
FFE1
FF68
004C
0048
0028
0004
FFE9
0021
FFA1
009D
001F
FFBD
FFEE
006C
FF88
FFB7
0040
FFBF
0068
FF7D
005D
FF67
FF53
008D
001D
FFCB
FFA1
0029
0003
00AE
00AB
0030
FFEC
FFFD
0041
FF73
FFC3
FF69
FF69
FF94
FFFB
0065
FFFB
FFC6
FF6C
0012
FFAF
0029
00A9
FF76
FF9A
FFF6
00A6
0060
008D
FFC5
00AF
FF73
FF61
007E
0098
FF6F
FF77
FF5A
FF74
FF99
00A7
003C
0063
0062
000C
006A
0022
FFBE
0016
000C
0073
00AB
FFE0
005D
FF72
0062
FFD2
FF5D
FFCF
0027
FF79
0096
FF6A
0099
0049
FFC4
FFD9
0055
0024
003D
FFD9
FFFC
00AE
FF9B
FFE3
FFB6
005E
005E
FFB6
FF6C
FF53
FFE6
FFE0
00AD
FFF5
FFAA
008B
FFFD
0023
FF71
FFD6
009E
0020
FFC9
002D
0092
FFB0
0002
00A3
FF8C
004E
0029
0040
FFCB
FFBE
0041
FF9B
FFE3
FF91
FF52
00A7
FFE8
00A6
FF80
001F
FF96
0067
0065
FF77
0092
FF94
0028
00AC
0088
00A2
FFC8
FF74
FF91
0000
0068
FF84
0039
FFC1
FFC8
0039
FFF4
006F
FF86
0067
FF65
FF93
0037
007E
FFA8
FFC3
000D
FF9A
006E
0061
FF82
FFF3
0061
FFC6
002F
FF60
0027
FF85
0075
FFCD
FFB3
0079
FF60
FFDB
FFD2
FFB4
0092
0059
FF65
004C
000A
008E
FFBE
001A
0000
FFFC
FFF0
FF98
005B
FFEF
00A3
FFAB
0041
009C
003A
0084
0074
FFCE
0024
FF86
000D
FFA0
0056
000A
FFE1
FFAE
00B1
FF68
FF5E
FF9C
00A7
00AA
0037
0087
FF9B
00A7
FF81
FF73
FF76
001A
0064
FFD1
00AA
FFE9
FF84
FFF4
0040
0076
FFF1
0021
FFAD
0034
00AC
FF60
0089
0016
FFA8
00A1
FFFA
FFC4
FF8F
FFA5
0076
0029
0093
FFA1
FF7A
FF51
0003
00B1
0045
FFBC
0086
0064
FF54
0070
FFB9
FF84
FF9F
FFF5
FFE5
FFB5
FF8C
005D
00AE
0063
FFB8
FFA5
FF9C
FF7F
0012
0025
0049
0040
FFB6
FFC4
0040
FFCB
FF9A
FFD3
FFAF
FF6E
0075
007D
FF9D
FF66
0055
FF9A
FFDA
FF65
FF9F
0068
006C
FF98
FFC6
FF7E
FF69
00AF
0037
000F
005E
0079
006D
FF55
FF91
0037
FFD4
00AB
003B
00A2
FF96
0081
FFC1
00AE
FF87
0006
0068
FFE8
FFF5
00AD
FFE6
0025
FF62
0079
0035
FFDE
FF54
0021
FF53
FF4F
0029
FF92
FF93
0036
FF62
FFBE
FF84
001C
0039
004E
FFA9
FF6E
FF6B
FFE6
009E
FF9C

// Layer 1: 16 x 16
FE51
FD3C
00BB
013F
00FE
0281
FFE8
FD78
FE8A
0120
00C9
0037
0145
00F4
02A4
0099
01EE
FE42
013C
02C9
FF35
01EF
018F
FCF3
0091
FD70
033D
0228
FD4C
FD61
00A8
FEED
FCC7
004A
FF39
FD3C
0217
02E0
01C7
023C
FE09
FE5D
FDFB
01D6
031A
0181
02A5
00F6
FF39
FF7C
FD0F
FCC1
015B
FF93
005D
0066
FE75
FFD5
FFCC
FF3A
0239
FFA9
00B8
02BE
028A
02B4
FE68
FCC7
FE58
FE78
02D6
0109
FD1A
FD79
FD9D
00E7
01A2
027E
030E
FDEF
FEAF
FE33
FF05
02DF
0085
01A6
FFEE
FCBC
FCFB
0043
0184
FE07
018A
0227
FF64
01B5
FF56
013C
01D4
0368
FEEE
FF62
FDAF
FDF3
0157
02E4
FF45
FDC8
FE83
FFB0
FE8D
FE27
01A3
FC97
0046
0209
FE61
00B7
012C
0113
FFA0
FEF0
0254
01CA
FEC3
FD40
FD09
FD30
0093
FCE5
FEDF
01C1
FE93
01D3
01B3
FE3D
0196
01B7
FF4A
FDFE
0026
02EB
00F8
FDBC
0144
FF7F
00A2
019F
001B
022D
018A
00CC
FD95
0254
0305
FD7C
FFEB
FE54
01C3
0189
FD83
029D
FDCA
020F
FFB4
FECF
FDA2
FDB2
011F
0059
FD62
FD51
FD09
01B0
0178
FCF1
006B
FD1F
02CC
02D2
0160
02F4
0228
0247
007C
FEA8
FE0B
FECE
00E4
FDBB
FE54
FFC7
FE27
009D
02EF
01B8
0127
0093
FFEB
FDD4
02BC
FE42
FD2B
01BB
FDC1
FF1D
FCBB
FD7C
FDBC
FCEA
0116
0256
FF1F
0298
FE04
FECA
FD95
00D6
FF72
00C9
01D0
0051
00E2
0304
FE9C
FF06
0182
00C5
FDC6
FF24
FFC7
FF71
FDC5
02F1
01D1
FFDF
013F
02C1
FD7B
FE45
004C
0212
FCC9
035A
FFB0
FF06
FE90
FDBE
0205
0328
FF67
0322
023E
FFDE
0135
FF8D

// Layer 2: 16 x 10
0074
FC9A
0182
FC90
0270
027F
FDFB
FEA5
FFDB
00BE
FE5E
00B6
FE72
FC95
FC2D
FCEF
023F
038C
FF70
0019
FD49
0064
FD45
00DB
0355
FDA9
0209
FC56
FF0B
FD02
FEDE
FD7E
FF07
FF5E
FE78
0134
0338
FF3C
FDA3
FE3D
02B9
008D
FFA7
FD4F
FF9D
FE4C
0368
02F4
FCCD
0021
FDE3
FF50
02E6
0036
FEBA
FDC1
024F
00F5
FFC1
FDD4
FEBA
0389
0028
FF3D
002A
0225
FEC5
FD88
00A7
0145
01A3
02F0
FF03
FCBC
0386
FF80
00F3
0147
005C
FDBC
01F6
0256
0068
FFE9
FD08
FCCD
FEC4
FE8C
037D
022E
013B
0023
FD71
03AD
FF0A
FCFB
FFF4
02E0
02FA
FC3E
02F8
FE3E
FC75
02AC
02CC
00BD
0092
0268
0233
0300
0068
0398
03D0
FD0D
02B0
0000
FF23
00DE
FC96
000D
02DA
FDCC
FF6F
0361
FF73
FEE9
FF8B
0026
0104
0250
FFA2
0271
0042
FEC2
0137
01AC
0072
FC98
FD76
FE5A
FE54
0155
FC4C
01F7
FE32
FE8A
0037
FDD1
02F5
FCD0
FF93
02B0
00E4
FE67
FF64
0197
03A3
0306
FECA
03D4

